{
  "version": "1.0",
  "truncation": null,
  "padding": null,
  "added_tokens": [
    {
      "id": 0,
      "content": "<PAD>",
      "single_word": false,
      "lstrip": false,
      "rstrip": false,
      "normalized": false,
      "special": true
    },
    {
      "id": 1,
      "content": "<UNK>",
      "single_word": false,
      "lstrip": false,
      "rstrip": false,
      "normalized": false,
      "special": true
    },
    {
      "id": 2,
      "content": "<BOS>",
      "single_word": false,
      "lstrip": false,
      "rstrip": false,
      "normalized": false,
      "special": true
    },
    {
      "id": 3,
      "content": "<EOS>",
      "single_word": false,
      "lstrip": false,
      "rstrip": false,
      "normalized": false,
      "special": true
    },
    {
      "id": 4,
      "content": "<USER>",
      "single_word": false,
      "lstrip": false,
      "rstrip": false,
      "normalized": false,
      "special": true
    },
    {
      "id": 5,
      "content": "<ASSISTANT>",
      "single_word": false,
      "lstrip": false,
      "rstrip": false,
      "normalized": false,
      "special": true
    }
  ],
  "normalizer": null,
  "pre_tokenizer": {
    "type": "Whitespace"
  },
  "post_processor": null,
  "decoder": null,
  "model": {
    "type": "BPE",
    "dropout": null,
    "unk_token": "<UNK>",
    "continuing_subword_prefix": null,
    "end_of_word_suffix": null,
    "fuse_unk": false,
    "byte_fallback": false,
    "ignore_merges": false,
    "vocab": {
      "<PAD>": 0,
      "<UNK>": 1,
      "<BOS>": 2,
      "<EOS>": 3,
      "<USER>": 4,
      "<ASSISTANT>": 5,
      "\u0006": 6,
      "\u0018": 7,
      "!": 8,
      "\"": 9,
      "#": 10,
      "$": 11,
      "%": 12,
      "&": 13,
      "'": 14,
      "(": 15,
      ")": 16,
      "*": 17,
      "+": 18,
      ",": 19,
      "-": 20,
      ".": 21,
      "/": 22,
      "0": 23,
      "1": 24,
      "2": 25,
      "3": 26,
      "4": 27,
      "5": 28,
      "6": 29,
      "7": 30,
      "8": 31,
      "9": 32,
      ":": 33,
      ";": 34,
      "<": 35,
      "=": 36,
      ">": 37,
      "?": 38,
      "@": 39,
      "A": 40,
      "B": 41,
      "C": 42,
      "D": 43,
      "E": 44,
      "F": 45,
      "G": 46,
      "H": 47,
      "I": 48,
      "J": 49,
      "K": 50,
      "L": 51,
      "M": 52,
      "N": 53,
      "O": 54,
      "P": 55,
      "Q": 56,
      "R": 57,
      "S": 58,
      "T": 59,
      "U": 60,
      "V": 61,
      "W": 62,
      "X": 63,
      "Y": 64,
      "Z": 65,
      "[": 66,
      "\\": 67,
      "]": 68,
      "^": 69,
      "_": 70,
      "`": 71,
      "a": 72,
      "b": 73,
      "c": 74,
      "d": 75,
      "e": 76,
      "f": 77,
      "g": 78,
      "h": 79,
      "i": 80,
      "j": 81,
      "k": 82,
      "l": 83,
      "m": 84,
      "n": 85,
      "o": 86,
      "p": 87,
      "q": 88,
      "r": 89,
      "s": 90,
      "t": 91,
      "u": 92,
      "v": 93,
      "w": 94,
      "x": 95,
      "y": 96,
      "z": 97,
      "{": 98,
      "|": 99,
      "}": 100,
      "~": 101,
      "": 102,
      "¡": 103,
      "£": 104,
      "¦": 105,
      "§": 106,
      "¨": 107,
      "«": 108,
      "¬": 109,
      "­": 110,
      "®": 111,
      "°": 112,
      "±": 113,
      "²": 114,
      "³": 115,
      "´": 116,
      "µ": 117,
      "·": 118,
      "¹": 119,
      "º": 120,
      "»": 121,
      "¼": 122,
      "½": 123,
      "¾": 124,
      "¿": 125,
      "Á": 126,
      "Ä": 127,
      "Å": 128,
      "Ç": 129,
      "É": 130,
      "Î": 131,
      "Ó": 132,
      "Ô": 133,
      "Ö": 134,
      "×": 135,
      "Ø": 136,
      "Ú": 137,
      "Ü": 138,
      "Þ": 139,
      "ß": 140,
      "à": 141,
      "á": 142,
      "â": 143,
      "ã": 144,
      "ä": 145,
      "å": 146,
      "æ": 147,
      "ç": 148,
      "è": 149,
      "é": 150,
      "ê": 151,
      "ë": 152,
      "ì": 153,
      "í": 154,
      "î": 155,
      "ï": 156,
      "ð": 157,
      "ñ": 158,
      "ò": 159,
      "ó": 160,
      "ô": 161,
      "ö": 162,
      "÷": 163,
      "ø": 164,
      "ù": 165,
      "ú": 166,
      "û": 167,
      "ü": 168,
      "þ": 169,
      "ā": 170,
      "ą": 171,
      "ć": 172,
      "Đ": 173,
      "đ": 174,
      "ē": 175,
      "ė": 176,
      "ę": 177,
      "ě": 178,
      "ģ": 179,
      "ħ": 180,
      "ī": 181,
      "ı": 182,
      "ļ": 183,
      "ł": 184,
      "ń": 185,
      "ō": 186,
      "ő": 187,
      "ř": 188,
      "ś": 189,
      "Ş": 190,
      "ş": 191,
      "š": 192,
      "ū": 193,
      "ź": 194,
      "ż": 195,
      "Ž": 196,
      "ǎ": 197,
      "ǐ": 198,
      "ǒ": 199,
      "ǔ": 200,
      "Ș": 201,
      "ț": 202,
      "ɑ": 203,
      "ə": 204,
      "ɪ": 205,
      "ʊ": 206,
      "ʕ": 207,
      "ʰ": 208,
      "ʳ": 209,
      "ʼ": 210,
      "ʿ": 211,
      "ˆ": 212,
      "ˈ": 213,
      "ˋ": 214,
      "ː": 215,
      "˚": 216,
      "˝": 217,
      "̀": 218,
      "́": 219,
      "̂": 220,
      "̃": 221,
      "̄": 222,
      "̅": 223,
      "̆": 224,
      "̇": 225,
      "̈": 226,
      "̉": 227,
      "̊": 228,
      "̋": 229,
      "̌": 230,
      "̍": 231,
      "̎": 232,
      "̏": 233,
      "̐": 234,
      "̑": 235,
      "̒": 236,
      "̓": 237,
      "̔": 238,
      "̕": 239,
      "̖": 240,
      "̗": 241,
      "̘": 242,
      "̙": 243,
      "̚": 244,
      "̛": 245,
      "̜": 246,
      "̝": 247,
      "̞": 248,
      "̟": 249,
      "̠": 250,
      "̡": 251,
      "̢": 252,
      "̣": 253,
      "̤": 254,
      "̥": 255,
      "̦": 256,
      "̧": 257,
      "̨": 258,
      "̩": 259,
      "̪": 260,
      "̫": 261,
      "̬": 262,
      "̭": 263,
      "̮": 264,
      "̯": 265,
      "̰": 266,
      "̱": 267,
      "̲": 268,
      "̳": 269,
      "̴": 270,
      "̵": 271,
      "̶": 272,
      "̷": 273,
      "̸": 274,
      "̹": 275,
      "̺": 276,
      "̻": 277,
      "̼": 278,
      "̽": 279,
      "̾": 280,
      "̿": 281,
      "̀": 282,
      "́": 283,
      "͂": 284,
      "̓": 285,
      "̈́": 286,
      "ͅ": 287,
      "͆": 288,
      "͇": 289,
      "͈": 290,
      "͉": 291,
      "͊": 292,
      "͋": 293,
      "͌": 294,
      "͍": 295,
      "͎": 296,
      "͏": 297,
      "͐": 298,
      "͑": 299,
      "͒": 300,
      "͓": 301,
      "͔": 302,
      "͕": 303,
      "͖": 304,
      "͗": 305,
      "͘": 306,
      "͙": 307,
      "͚": 308,
      "͛": 309,
      "͜": 310,
      "͝": 311,
      "͞": 312,
      "͟": 313,
      "͠": 314,
      "͡": 315,
      "͢": 316,
      "ͣ": 317,
      "ͤ": 318,
      "ͥ": 319,
      "ͦ": 320,
      "ͧ": 321,
      "ͨ": 322,
      "ͩ": 323,
      "ͪ": 324,
      "ͫ": 325,
      "ͬ": 326,
      "ͭ": 327,
      "ͮ": 328,
      "ͯ": 329,
      "Έ": 330,
      "Ό": 331,
      "Α": 332,
      "Γ": 333,
      "Ε": 334,
      "Θ": 335,
      "Κ": 336,
      "Λ": 337,
      "Ν": 338,
      "Ξ": 339,
      "Π": 340,
      "Σ": 341,
      "Τ": 342,
      "Φ": 343,
      "Ψ": 344,
      "Ω": 345,
      "ά": 346,
      "έ": 347,
      "ή": 348,
      "ί": 349,
      "α": 350,
      "β": 351,
      "γ": 352,
      "δ": 353,
      "ε": 354,
      "ζ": 355,
      "η": 356,
      "θ": 357,
      "ι": 358,
      "κ": 359,
      "λ": 360,
      "μ": 361,
      "ν": 362,
      "ξ": 363,
      "ο": 364,
      "π": 365,
      "ρ": 366,
      "ς": 367,
      "σ": 368,
      "τ": 369,
      "υ": 370,
      "φ": 371,
      "χ": 372,
      "ψ": 373,
      "ω": 374,
      "ό": 375,
      "ύ": 376,
      "ώ": 377,
      "В": 378,
      "Г": 379,
      "Д": 380,
      "З": 381,
      "И": 382,
      "К": 383,
      "О": 384,
      "Р": 385,
      "С": 386,
      "Т": 387,
      "Ф": 388,
      "Х": 389,
      "Э": 390,
      "Я": 391,
      "а": 392,
      "б": 393,
      "в": 394,
      "г": 395,
      "д": 396,
      "е": 397,
      "ж": 398,
      "з": 399,
      "и": 400,
      "й": 401,
      "к": 402,
      "л": 403,
      "м": 404,
      "н": 405,
      "о": 406,
      "п": 407,
      "р": 408,
      "с": 409,
      "т": 410,
      "у": 411,
      "ф": 412,
      "х": 413,
      "ц": 414,
      "ч": 415,
      "ш": 416,
      "щ": 417,
      "ы": 418,
      "ь": 419,
      "э": 420,
      "ю": 421,
      "я": 422,
      "҉": 423,
      "֑": 424,
      "֖": 425,
      "֗": 426,
      "֙": 427,
      "֣": 428,
      "֥": 429,
      "ְ": 430,
      "ֱ": 431,
      "ִ": 432,
      "ֵ": 433,
      "ֶ": 434,
      "ַ": 435,
      "ָ": 436,
      "ֹ": 437,
      "ּ": 438,
      "ֽ": 439,
      "ׁ": 440,
      "׃": 441,
      "א": 442,
      "ב": 443,
      "ג": 444,
      "ד": 445,
      "ה": 446,
      "ו": 447,
      "ז": 448,
      "ח": 449,
      "י": 450,
      "ך": 451,
      "כ": 452,
      "ל": 453,
      "ם": 454,
      "מ": 455,
      "ן": 456,
      "נ": 457,
      "ס": 458,
      "ע": 459,
      "ף": 460,
      "פ": 461,
      "ץ": 462,
      "צ": 463,
      "ק": 464,
      "ר": 465,
      "ש": 466,
      "ת": 467,
      "؟": 468,
      "ا": 469,
      "ب": 470,
      "ت": 471,
      "ح": 472,
      "د": 473,
      "ر": 474,
      "ز": 475,
      "س": 476,
      "ش": 477,
      "ض": 478,
      "ع": 479,
      "ك": 480,
      "ل": 481,
      "م": 482,
      "ن": 483,
      "ه": 484,
      "و": 485,
      "ي": 486,
      "پ": 487,
      "چ": 488,
      "ک": 489,
      "ی": 490,
      "அ": 491,
      "ஆ": 492,
      "இ": 493,
      "உ": 494,
      "எ": 495,
      "ஒ": 496,
      "க": 497,
      "ங": 498,
      "ச": 499,
      "ட": 500,
      "த": 501,
      "ந": 502,
      "ன": 503,
      "ப": 504,
      "ம": 505,
      "ய": 506,
      "ர": 507,
      "ள": 508,
      "ழ": 509,
      "வ": 510,
      "ா": 511,
      "ி": 512,
      "ு": 513,
      "ே": 514,
      "ை": 515,
      "ொ": 516,
      "்": 517,
      "ඞ": 518,
      "Ꭿ": 519,
      "ក": 520,
      "ជ": 521,
      "ត": 522,
      "ធ": 523,
      "ប": 524,
      "ព": 525,
      "ម": 526,
      "យ": 527,
      "រ": 528,
      "ា": 529,
      "ិ": 530,
      "ុ": 531,
      "េ": 532,
      "្": 533,
      "ṇ": 534,
      "ṣ": 535,
      "ạ": 536,
      "ầ": 537,
      "ễ": 538,
      "ị": 539,
      "Ọ": 540,
      "ọ": 541,
      "ỏ": 542,
      "ἱ": 543,
      "​": 544,
      "‌": 545,
      "‍": 546,
      "‎": 547,
      "‐": 548,
      "‑": 549,
      "‒": 550,
      "–": 551,
      "—": 552,
      "―": 553,
      "‖": 554,
      "‘": 555,
      "’": 556,
      "‚": 557,
      "“": 558,
      "”": 559,
      "„": 560,
      "†": 561,
      "•": 562,
      "…": 563,
      "′": 564,
      "″": 565,
      "‵": 566,
      "⁄": 567,
      "⁢": 568,
      "⁴": 569,
      "⁵": 570,
      "⁶": 571,
      "ⁿ": 572,
      "₀": 573,
      "₁": 574,
      "₂": 575,
      "₃": 576,
      "ₖ": 577,
      "ₙ": 578,
      "ₛ": 579,
      "€": 580,
      "₹": 581,
      "ℂ": 582,
      "ℎ": 583,
      "ℏ": 584,
      "ℕ": 585,
      "ℚ": 586,
      "ℝ": 587,
      "ℤ": 588,
      "ℬ": 589,
      "⅓": 590,
      "⅔": 591,
      "⅛": 592,
      "→": 593,
      "⇔": 594,
      "∀": 595,
      "∂": 596,
      "∃": 597,
      "∅": 598,
      "∆": 599,
      "∈": 600,
      "∉": 601,
      "∏": 602,
      "∑": 603,
      "−": 604,
      "∗": 605,
      "√": 606,
      "∞": 607,
      "∧": 608,
      "∨": 609,
      "∩": 610,
      "∪": 611,
      "∫": 612,
      "≃": 613,
      "≈": 614,
      "≠": 615,
      "≤": 616,
      "≥": 617,
      "≦": 618,
      "⊂": 619,
      "⊆": 620,
      "⊕": 621,
      "⊗": 622,
      "⊢": 623,
      "⊤": 624,
      "⊥": 625,
      "⋅": 626,
      "⋯": 627,
      "⌈": 628,
      "⌉": 629,
      "⌊": 630,
      "⌋": 631,
      "〈": 632,
      "〉": 633,
      "⏰": 634,
      "─": 635,
      "━": 636,
      "│": 637,
      "└": 638,
      "├": 639,
      "┻": 640,
      "╓": 641,
      "╕": 642,
      "╖": 643,
      "╗": 644,
      "╘": 645,
      "╙": 646,
      "╜": 647,
      "╠": 648,
      "╢": 649,
      "╣": 650,
      "╨": 651,
      "╫": 652,
      "╬": 653,
      "╯": 654,
      "╰": 655,
      "▀": 656,
      "▄": 657,
      "█": 658,
      "▌": 659,
      "▐": 660,
      "░": 661,
      "▒": 662,
      "▓": 663,
      "□": 664,
      "☀": 665,
      "☉": 666,
      "☺": 667,
      "☿": 668,
      "♀": 669,
      "♂": 670,
      "♃": 671,
      "♄": 672,
      "♅": 673,
      "♆": 674,
      "♔": 675,
      "♕": 676,
      "♖": 677,
      "♗": 678,
      "♘": 679,
      "♙": 680,
      "♚": 681,
      "♛": 682,
      "♜": 683,
      "♝": 684,
      "♞": 685,
      "♟": 686,
      "♥": 687,
      "♪": 688,
      "♭": 689,
      "♯": 690,
      "♻": 691,
      "⚫": 692,
      "⛪": 693,
      "✅": 694,
      "✈": 695,
      "✉": 696,
      "✓": 697,
      "✦": 698,
      "✨": 699,
      "❤": 700,
      "❯": 701,
      "➶": 702,
      "⟨": 703,
      "⟩": 704,
      "Ɐ": 705,
      "、": 706,
      "。": 707,
      "々": 708,
      "《": 709,
      "》": 710,
      "あ": 711,
      "い": 712,
      "う": 713,
      "え": 714,
      "お": 715,
      "か": 716,
      "が": 717,
      "き": 718,
      "く": 719,
      "け": 720,
      "げ": 721,
      "こ": 722,
      "ご": 723,
      "さ": 724,
      "ざ": 725,
      "し": 726,
      "じ": 727,
      "す": 728,
      "せ": 729,
      "ぜ": 730,
      "そ": 731,
      "た": 732,
      "だ": 733,
      "ち": 734,
      "っ": 735,
      "つ": 736,
      "て": 737,
      "で": 738,
      "と": 739,
      "ど": 740,
      "な": 741,
      "に": 742,
      "ね": 743,
      "の": 744,
      "は": 745,
      "ひ": 746,
      "ぶ": 747,
      "ほ": 748,
      "ま": 749,
      "み": 750,
      "む": 751,
      "め": 752,
      "も": 753,
      "や": 754,
      "ょ": 755,
      "よ": 756,
      "ら": 757,
      "り": 758,
      "る": 759,
      "れ": 760,
      "わ": 761,
      "を": 762,
      "ん": 763,
      "ア": 764,
      "イ": 765,
      "エ": 766,
      "ク": 767,
      "コ": 768,
      "サ": 769,
      "シ": 770,
      "タ": 771,
      "チ": 772,
      "ッ": 773,
      "ト": 774,
      "ド": 775,
      "バ": 776,
      "ブ": 777,
      "ペ": 778,
      "ボ": 779,
      "ミ": 780,
      "ム": 781,
      "メ": 782,
      "ャ": 783,
      "ラ": 784,
      "レ": 785,
      "ン": 786,
      "ー": 787,
      "㐅": 788,
      "一": 789,
      "丈": 790,
      "三": 791,
      "不": 792,
      "世": 793,
      "个": 794,
      "中": 795,
      "主": 796,
      "么": 797,
      "之": 798,
      "也": 799,
      "书": 800,
      "事": 801,
      "二": 802,
      "五": 803,
      "亡": 804,
      "交": 805,
      "京": 806,
      "人": 807,
      "什": 808,
      "仁": 809,
      "仙": 810,
      "以": 811,
      "仲": 812,
      "住": 813,
      "何": 814,
      "你": 815,
      "供": 816,
      "修": 817,
      "做": 818,
      "傘": 819,
      "元": 820,
      "先": 821,
      "光": 822,
      "兵": 823,
      "其": 824,
      "再": 825,
      "写": 826,
      "冷": 827,
      "刀": 828,
      "分": 829,
      "初": 830,
      "别": 831,
      "前": 832,
      "勉": 833,
      "北": 834,
      "变": 835,
      "可": 836,
      "合": 837,
      "名": 838,
      "吗": 839,
      "吹": 840,
      "味": 841,
      "命": 842,
      "四": 843,
      "国": 844,
      "國": 845,
      "地": 846,
      "声": 847,
      "変": 848,
      "多": 849,
      "夜": 850,
      "大": 851,
      "天": 852,
      "太": 853,
      "失": 854,
      "女": 855,
      "好": 856,
      "始": 857,
      "子": 858,
      "字": 859,
      "存": 860,
      "学": 861,
      "孫": 862,
      "安": 863,
      "宗": 864,
      "宮": 865,
      "宰": 866,
      "寒": 867,
      "察": 868,
      "封": 869,
      "將": 870,
      "尋": 871,
      "小": 872,
      "少": 873,
      "山": 874,
      "崎": 875,
      "帝": 876,
      "度": 877,
      "強": 878,
      "当": 879,
      "形": 880,
      "彼": 881,
      "很": 882,
      "循": 883,
      "徴": 884,
      "心": 885,
      "怎": 886,
      "思": 887,
      "性": 888,
      "恋": 889,
      "悪": 890,
      "情": 891,
      "愛": 892,
      "我": 893,
      "战": 894,
      "所": 895,
      "持": 896,
      "换": 897,
      "探": 898,
      "故": 899,
      "散": 900,
      "文": 901,
      "日": 902,
      "昔": 903,
      "星": 904,
      "是": 905,
      "晴": 906,
      "暑": 907,
      "曰": 908,
      "月": 909,
      "朝": 910,
      "本": 911,
      "東": 912,
      "校": 913,
      "样": 914,
      "根": 915,
      "格": 916,
      "楽": 917,
      "欲": 918,
      "歌": 919,
      "死": 920,
      "毎": 921,
      "比": 922,
      "気": 923,
      "沌": 924,
      "法": 925,
      "消": 926,
      "深": 927,
      "混": 928,
      "漢": 929,
      "熱": 930,
      "父": 931,
      "特": 932,
      "狩": 933,
      "猎": 934,
      "猫": 935,
      "环": 936,
      "理": 937,
      "生": 938,
      "用": 939,
      "田": 940,
      "男": 941,
      "登": 942,
      "白": 943,
      "百": 944,
      "的": 945,
      "皇": 946,
      "盘": 947,
      "相": 948,
      "眠": 949,
      "知": 950,
      "社": 951,
      "神": 952,
      "祭": 953,
      "私": 954,
      "秋": 955,
      "竹": 956,
      "符": 957,
      "第": 958,
      "篆": 959,
      "紅": 960,
      "素": 961,
      "索": 962,
      "經": 963,
      "緒": 964,
      "纪": 965,
      "美": 966,
      "羽": 967,
      "者": 968,
      "而": 969,
      "育": 970,
      "能": 971,
      "興": 972,
      "舞": 973,
      "良": 974,
      "花": 975,
      "英": 976,
      "荒": 977,
      "莽": 978,
      "葉": 979,
      "行": 980,
      "见": 981,
      "解": 982,
      "言": 983,
      "計": 984,
      "話": 985,
      "詳": 986,
      "語": 987,
      "読": 988,
      "誰": 989,
      "记": 990,
      "识": 991,
      "谁": 992,
      "谢": 993,
      "買": 994,
      "賑": 995,
      "踊": 996,
      "車": 997,
      "辰": 998,
      "遊": 999,
      "道": 1000,
      "郎": 1001,
      "雁": 1002,
      "面": 1003,
      "音": 1004,
      "願": 1005,
      "風": 1006,
      "飼": 1007,
      "駿": 1008,
      "高": 1009,
      "鬼": 1010,
      "魔": 1011,
      "鳥": 1012,
      "鳴": 1013,
      "龙": 1014,
      "ꓘ": 1015,
      "ꓛ": 1016,
      "ꓭ": 1017,
      "ꓶ": 1018,
      "계": 1019,
      "고": 1020,
      "는": 1021,
      "니": 1022,
      "다": 1023,
      "댄": 1024,
      "디": 1025,
      "렌": 1026,
      "로": 1027,
      "를": 1028,
      "리": 1029,
      "문": 1030,
      "상": 1031,
      "세": 1032,
      "스": 1033,
      "습": 1034,
      "싶": 1035,
      "알": 1036,
      "에": 1037,
      "영": 1038,
      "으": 1039,
      "트": 1040,
      "한": 1041,
      "화": 1042,
      "︎": 1043,
      "️": 1044,
      "︵": 1045,
      "﻿": 1046,
      "！": 1047,
      "（": 1048,
      "）": 1049,
      "，": 1050,
      "：": 1051,
      "？": 1052,
      "𝐿": 1053,
      "𝑎": 1054,
      "𝑏": 1055,
      "𝑑": 1056,
      "𝑒": 1057,
      "𝑓": 1058,
      "𝑔": 1059,
      "𝑘": 1060,
      "𝑛": 1061,
      "𝑟": 1062,
      "𝑥": 1063,
      "𝑦": 1064,
      "𝑧": 1065,
      "𝒶": 1066,
      "𝓃": 1067,
      "𝛽": 1068,
      "𝛿": 1069,
      "𝜂": 1070,
      "𝜃": 1071,
      "𝜋": 1072,
      "🇰": 1073,
      "🇵": 1074,
      "🌃": 1075,
      "🌅": 1076,
      "🌈": 1077,
      "🌊": 1078,
      "🌋": 1079,
      "🌍": 1080,
      "🌎": 1081,
      "🌏": 1082,
      "🌐": 1083,
      "🌙": 1084,
      "🌞": 1085,
      "🌟": 1086,
      "🌠": 1087,
      "🌧": 1088,
      "🌱": 1089,
      "🌳": 1090,
      "🌴": 1091,
      "🌹": 1092,
      "🌺": 1093,
      "🌿": 1094,
      "🍅": 1095,
      "🍌": 1096,
      "🍎": 1097,
      "🍓": 1098,
      "🍯": 1099,
      "🍰": 1100,
      "🍲": 1101,
      "🍻": 1102,
      "🍽": 1103,
      "🍿": 1104,
      "🎁": 1105,
      "🎄": 1106,
      "🎉": 1107,
      "🎎": 1108,
      "🎥": 1109,
      "🎬": 1110,
      "🎮": 1111,
      "🎶": 1112,
      "🎾": 1113,
      "🏃": 1114,
      "🏄": 1115,
      "🏆": 1116,
      "🏊": 1117,
      "🏋": 1118,
      "🏖": 1119,
      "🏝": 1120,
      "🏞": 1121,
      "🏫": 1122,
      "🏰": 1123,
      "🏻": 1124,
      "🏼": 1125,
      "🐍": 1126,
      "🐝": 1127,
      "👀": 1128,
      "👂": 1129,
      "👃": 1130,
      "👉": 1131,
      "👊": 1132,
      "👋": 1133,
      "👍": 1134,
      "👏": 1135,
      "👑": 1136,
      "👥": 1137,
      "👨": 1138,
      "👼": 1139,
      "💀": 1140,
      "💃": 1141,
      "💋": 1142,
      "💌": 1143,
      "💍": 1144,
      "💎": 1145,
      "💔": 1146,
      "💕": 1147,
      "💖": 1148,
      "💝": 1149,
      "💡": 1150,
      "💥": 1151,
      "💩": 1152,
      "💪": 1153,
      "💫": 1154,
      "💯": 1155,
      "💰": 1156,
      "💸": 1157,
      "💻": 1158,
      "💼": 1159,
      "📈": 1160,
      "📖": 1161,
      "📝": 1162,
      "📦": 1163,
      "📨": 1164,
      "🔁": 1165,
      "🔍": 1166,
      "🔥": 1167,
      "🔭": 1168,
      "🕍": 1169,
      "🕯": 1170,
      "🗡": 1171,
      "🗣": 1172,
      "🗺": 1173,
      "🗽": 1174,
      "😀": 1175,
      "😁": 1176,
      "😂": 1177,
      "😃": 1178,
      "😄": 1179,
      "😆": 1180,
      "😈": 1181,
      "😉": 1182,
      "😊": 1183,
      "😌": 1184,
      "😎": 1185,
      "😏": 1186,
      "😔": 1187,
      "😠": 1188,
      "😬": 1189,
      "😭": 1190,
      "😱": 1191,
      "😷": 1192,
      "🙂": 1193,
      "🙄": 1194,
      "🙅": 1195,
      "🙇": 1196,
      "🙋": 1197,
      "🙌": 1198,
      "🙏": 1199,
      "🚀": 1200,
      "🚢": 1201,
      "🛍": 1202,
      "🡡": 1203,
      "🡣": 1204,
      "🡤": 1205,
      "🡥": 1206,
      "🡦": 1207,
      "🡧": 1208,
      "🤏": 1209,
      "🤑": 1210,
      "🤓": 1211,
      "🤔": 1212,
      "🤗": 1213,
      "🤚": 1214,
      "🤝": 1215,
      "🤢": 1216,
      "🤣": 1217,
      "🤧": 1218,
      "🤨": 1219,
      "🤩": 1220,
      "🤮": 1221,
      "🤯": 1222,
      "🤴": 1223,
      "🤷": 1224,
      "🥐": 1225,
      "🥑": 1226,
      "🥖": 1227,
      "🥦": 1228,
      "🦀": 1229,
      "🦄": 1230,
      "🦠": 1231,
      "🧐": 1232,
      "🧑": 1233,
      "🧠": 1234,
      "🧮": 1235,
      "🪓": 1236,
      "􀀀": 1237,
      "th": 1238,
      "in": 1239,
      "an": 1240,
      "er": 1241,
      "on": 1242,
      "re": 1243,
      "the": 1244,
      "at": 1245,
      "or": 1246,
      "en": 1247,
      "ou": 1248,
      "es": 1249,
      "al": 1250,
      "is": 1251,
      "to": 1252,
      "and": 1253,
      "ing": 1254,
      "it": 1255,
      "ar": 1256,
      "le": 1257,
      "of": 1258,
      "as": 1259,
      "ed": 1260,
      "ic": 1261,
      "ion": 1262,
      "st": 1263,
      "ro": 1264,
      "el": 1265,
      "me": 1266,
      "you": 1267,
      "ac": 1268,
      "ent": 1269,
      "se": 1270,
      "co": 1271,
      "de": 1272,
      "for": 1273,
      "ch": 1274,
      "il": 1275,
      "be": 1276,
      "ow": 1277,
      "mp": 1278,
      "ve": 1279,
      "ct": 1280,
      "that": 1281,
      "Th": 1282,
      "are": 1283,
      "su": 1284,
      "ation": 1285,
      "ter": 1286,
      "wh": 1287,
      "ge": 1288,
      "con": 1289,
      "ad": 1290,
      "pro": 1291,
      "ig": 1292,
      "un": 1293,
      "us": 1294,
      "ly": 1295,
      "mo": 1296,
      "ab": 1297,
      "so": 1298,
      "ith": 1299,
      "ma": 1300,
      "if": 1301,
      "ce": 1302,
      "ex": 1303,
      "ver": 1304,
      "ut": 1305,
      "ld": 1306,
      "can": 1307,
      "lo": 1308,
      "US": 1309,
      "ra": 1310,
      "ER": 1311,
      "with": 1312,
      "USER": 1313,
      "ke": 1314,
      "id": 1315,
      "ul": 1316,
      "ur": 1317,
      "pe": 1318,
      "ot": 1319,
      "ir": 1320,
      "ne": 1321,
      "ate": 1322,
      "ay": 1323,
      "SS": 1324,
      "pl": 1325,
      "ther": 1326,
      "ST": 1327,
      "op": 1328,
      "AN": 1329,
      "qu": 1330,
      "ANT": 1331,
      "ri": 1332,
      "ASS": 1333,
      "IST": 1334,
      "ASSIST": 1335,
      "ASSISTANT": 1336,
      "ha": 1337,
      "ment": 1338,
      "The": 1339,
      "res": 1340,
      "ist": 1341,
      "ess": 1342,
      "your": 1343,
      "est": 1344,
      "ould": 1345,
      "ant": 1346,
      "li": 1347,
      "ers": 1348,
      "all": 1349,
      "ol": 1350,
      "ti": 1351,
      "ap": 1352,
      "out": 1353,
      "ity": 1354,
      "igh": 1355,
      "am": 1356,
      "wor": 1357,
      "sh": 1358,
      "um": 1359,
      "do": 1360,
      "ere": 1361,
      "tr": 1362,
      "te": 1363,
      "we": 1364,
      "ill": 1365,
      "si": 1366,
      "od": 1367,
      "ts": 1368,
      "end": 1369,
      "by": 1370,
      "po": 1371,
      "not": 1372,
      "ta": 1373,
      "per": 1374,
      "have": 1375,
      "ine": 1376,
      "comp": 1377,
      "ci": 1378,
      "fe": 1379,
      "oun": 1380,
      "ort": 1381,
      "act": 1382,
      "cl": 1383,
      "ions": 1384,
      "any": 1385,
      "rom": 1386,
      "mm": 1387,
      "vi": 1388,
      "he": 1389,
      "ure": 1390,
      "cre": 1391,
      "imp": 1392,
      "form": 1393,
      "ind": 1394,
      "use": 1395,
      "our": 1396,
      "from": 1397,
      "Wh": 1398,
      "one": 1399,
      "art": 1400,
      "ical": 1401,
      "able": 1402,
      "et": 1403,
      "ame": 1404,
      "em": 1405,
      "ies": 1406,
      "ight": 1407,
      "ach": 1408,
      "age": 1409,
      "ive": 1410,
      "In": 1411,
      "ell": 1412,
      "this": 1413,
      "iz": 1414,
      "some": 1415,
      "but": 1416,
      "ich": 1417,
      "other": 1418,
      "go": 1419,
      "fer": 1420,
      "ans": 1421,
      "ack": 1422,
      "ph": 1423,
      "vel": 1424,
      "ag": 1425,
      "der": 1426,
      "ile": 1427,
      "up": 1428,
      "more": 1429,
      "ence": 1430,
      "ang": 1431,
      "str": 1432,
      "ard": 1433,
      "--": 1434,
      "``": 1435,
      "ase": 1436,
      "int": 1437,
      "ite": 1438,
      "work": 1439,
      "di": 1440,
      "which": 1441,
      "will": 1442,
      "du": 1443,
      "was": 1444,
      "ction": 1445,
      "dat": 1446,
      "its": 1447,
      "gh": 1448,
      "This": 1449,
      "hel": 1450,
      "fo": 1451,
      "their": 1452,
      "ep": 1453,
      "sy": 1454,
      "king": 1455,
      "no": 1456,
      "my": 1457,
      "would": 1458,
      "cess": 1459,
      "00": 1460,
      "ust": 1461,
      "spe": 1462,
      "ble": 1463,
      "ass": 1464,
      "own": 1465,
      "im": 1466,
      "bo": 1467,
      "ev": 1468,
      "ally": 1469,
      "dif": 1470,
      "ance": 1471,
      "help": 1472,
      "such": 1473,
      "has": 1474,
      "ations": 1475,
      "cont": 1476,
      "pre": 1477,
      "av": 1478,
      "ough": 1479,
      "It": 1480,
      "comm": 1481,
      "ty": 1482,
      "ous": 1483,
      "ext": 1484,
      "amp": 1485,
      "ound": 1486,
      "like": 1487,
      "ef": 1488,
      "pr": 1489,
      "ory": 1490,
      "ain": 1491,
      "ud": 1492,
      "way": 1493,
      "about": 1494,
      "ener": 1495,
      "gra": 1496,
      "inter": 1497,
      "cur": 1498,
      "ice": 1499,
      "ated": 1500,
      "them": 1501,
      "they": 1502,
      "ial": 1503,
      "low": 1504,
      "What": 1505,
      "how": 1506,
      "ong": 1507,
      "iv": 1508,
      "How": 1509,
      "kn": 1510,
      "ser": 1511,
      "ue": 1512,
      "om": 1513,
      "ign": 1514,
      "time": 1515,
      "get": 1516,
      "ces": 1517,
      "ace": 1518,
      "also": 1519,
      "pt": 1520,
      "pos": 1521,
      "ob": 1522,
      "ck": 1523,
      "je": 1524,
      "ific": 1525,
      "ary": 1526,
      "data": 1527,
      "need": 1528,
      "using": 1529,
      "ber": 1530,
      "fun": 1531,
      "used": 1532,
      "ever": 1533,
      "ast": 1534,
      "ject": 1535,
      "ition": 1536,
      "may": 1537,
      "there": 1538,
      "what": 1539,
      "cal": 1540,
      "incl": 1541,
      "thing": 1542,
      "stem": 1543,
      "des": 1544,
      "ire": 1545,
      "dis": 1546,
      "del": 1547,
      "bet": 1548,
      "import": 1549,
      "ca": 1550,
      "log": 1551,
      "could": 1552,
      "pp": 1553,
      "sp": 1554,
      "tra": 1555,
      "les": 1556,
      "ful": 1557,
      "cri": 1558,
      "new": 1559,
      "differ": 1560,
      "You": 1561,
      "ren": 1562,
      "lear": 1563,
      "ok": 1564,
      "val": 1565,
      "ho": 1566,
      "add": 1567,
      "system": 1568,
      "gr": 1569,
      "col": 1570,
      "tw": 1571,
      "com": 1572,
      "ors": 1573,
      "ear": 1574,
      "led": 1575,
      "over": 1576,
      "mat": 1577,
      "ning": 1578,
      "examp": 1579,
      "vide": 1580,
      "ms": 1581,
      "play": 1582,
      "make": 1583,
      "into": 1584,
      "ics": 1585,
      "put": 1586,
      "ely": 1587,
      "tain": 1588,
      "code": 1589,
      "br": 1590,
      "ry": 1591,
      "cor": 1592,
      "bu": 1593,
      "should": 1594,
      "ating": 1595,
      "ari": 1596,
      "wr": 1597,
      "ish": 1598,
      "ments": 1599,
      "angu": 1600,
      "min": 1601,
      "num": 1602,
      "ting": 1603,
      "ree": 1604,
      "ens": 1605,
      "If": 1606,
      "model": 1607,
      "ress": 1608,
      "requ": 1609,
      "ular": 1610,
      "langu": 1611,
      "```": 1612,
      "fl": 1613,
      "An": 1614,
      "man": 1615,
      "set": 1616,
      "bas": 1617,
      "cons": 1618,
      "ip": 1619,
      "who": 1620,
      "under": 1621,
      "ild": 1622,
      "ual": 1623,
      "AI": 1624,
      "stand": 1625,
      "row": 1626,
      "eng": 1627,
      "his": 1628,
      "want": 1629,
      "velop": 1630,
      "gener": 1631,
      "ks": 1632,
      "au": 1633,
      "elf": 1634,
      "each": 1635,
      "hum": 1636,
      "fic": 1637,
      "day": 1638,
      "tur": 1639,
      "many": 1640,
      "when": 1641,
      "ide": 1642,
      "different": 1643,
      "example": 1644,
      "pers": 1645,
      "os": 1646,
      "than": 1647,
      "par": 1648,
      "these": 1649,
      "know": 1650,
      "most": 1651,
      "function": 1652,
      "Here": 1653,
      "ange": 1654,
      "spec": 1655,
      "then": 1656,
      "..": 1657,
      "As": 1658,
      "ility": 1659,
      "lect": 1660,
      "dep": 1661,
      "world": 1662,
      "where": 1663,
      "develop": 1664,
      "rel": 1665,
      "ick": 1666,
      "fin": 1667,
      "sure": 1668,
      "rough": 1669,
      "ates": 1670,
      "bl": 1671,
      "let": 1672,
      "try": 1673,
      "peri": 1674,
      "sol": 1675,
      "progra": 1676,
      "arch": 1677,
      "Can": 1678,
      "list": 1679,
      "read": 1680,
      "process": 1681,
      "20": 1682,
      "create": 1683,
      "St": 1684,
      "----": 1685,
      "ures": 1686,
      "ents": 1687,
      "ps": 1688,
      "ise": 1689,
      "ew": 1690,
      "just": 1691,
      "inv": 1692,
      "ople": 1693,
      "vers": 1694,
      "ple": 1695,
      "ween": 1696,
      "high": 1697,
      "between": 1698,
      "ving": 1699,
      "back": 1700,
      "ities": 1701,
      "coun": 1702,
      "ys": 1703,
      "main": 1704,
      "fect": 1705,
      "language": 1706,
      "important": 1707,
      "part": 1708,
      "ds": 1709,
      "inform": 1710,
      "ater": 1711,
      "irst": 1712,
      "pon": 1713,
      "ider": 1714,
      "gre": 1715,
      "fol": 1716,
      "vari": 1717,
      "self": 1718,
      "Ch": 1719,
      "produ": 1720,
      "name": 1721,
      "game": 1722,
      "inst": 1723,
      "lif": 1724,
      "yth": 1725,
      "So": 1726,
      "people": 1727,
      "through": 1728,
      "ower": 1729,
      "includ": 1730,
      "af": 1731,
      "10": 1732,
      "provide": 1733,
      "tech": 1734,
      "find": 1735,
      "cial": 1736,
      "For": 1737,
      "follow": 1738,
      "fore": 1739,
      "ll": 1740,
      "start": 1741,
      "gu": 1742,
      "pa": 1743,
      "()": 1744,
      "person": 1745,
      "rect": 1746,
      "stru": 1747,
      "cul": 1748,
      "line": 1749,
      "reg": 1750,
      "plan": 1751,
      "cho": 1752,
      "Re": 1753,
      "cript": 1754,
      "cus": 1755,
      "lar": 1756,
      "quest": 1757,
      "key": 1758,
      "good": 1759,
      "ves": 1760,
      "net": 1761,
      "pri": 1762,
      "tim": 1763,
      "als": 1764,
      "sm": 1765,
      "while": 1766,
      "two": 1767,
      "cy": 1768,
      "information": 1769,
      "gg": 1770,
      "cent": 1771,
      "file": 1772,
      "pres": 1773,
      "cr": 1774,
      "ython": 1775,
      "trans": 1776,
      "understand": 1777,
      "ative": 1778,
      "ie": 1779,
      "ude": 1780,
      "att": 1781,
      "train": 1782,
      "mar": 1783,
      "char": 1784,
      "adv": 1785,
      "tern": 1786,
      "sul": 1787,
      "run": 1788,
      "ters": 1789,
      "dist": 1790,
      "To": 1791,
      "been": 1792,
      "top": 1793,
      "well": 1794,
      "only": 1795,
      "turn": 1796,
      "**": 1797,
      "ima": 1798,
      "\",": 1799,
      "text": 1800,
      "ail": 1801,
      "ices": 1802,
      "ten": 1803,
      "light": 1804,
      "fi": 1805,
      "first": 1806,
      "cause": 1807,
      "aw": 1808,
      "tion": 1809,
      "does": 1810,
      "ced": 1811,
      "ize": 1812,
      "Con": 1813,
      "ia": 1814,
      "come": 1815,
      "sible": 1816,
      "//": 1817,
      "respon": 1818,
      "However": 1819,
      "ose": 1820,
      "experi": 1821,
      "web": 1822,
      "vir": 1823,
      "her": 1824,
      "human": 1825,
      "ink": 1826,
      "specific": 1827,
      "lex": 1828,
      "power": 1829,
      "gy": 1830,
      "ality": 1831,
      "exp": 1832,
      "ak": 1833,
      "sub": 1834,
      "allow": 1835,
      "based": 1836,
      "depend": 1837,
      "med": 1838,
      "19": 1839,
      "number": 1840,
      "ings": 1841,
      "sign": 1842,
      "down": 1843,
      "ages": 1844,
      "ability": 1845,
      "fact": 1846,
      "ask": 1847,
      "step": 1848,
      "mul": 1849,
      "En": 1850,
      "vid": 1851,
      "He": 1852,
      "build": 1853,
      "plic": 1854,
      "consider": 1855,
      "cer": 1856,
      "ese": 1857,
      "sk": 1858,
      "life": 1859,
      "were": 1860,
      "best": 1861,
      "port": 1862,
      "mem": 1863,
      "fil": 1864,
      "ences": 1865,
      "simp": 1866,
      "take": 1867,
      "ze": 1868,
      "ways": 1869,
      "mon": 1870,
      "class": 1871,
      "being": 1872,
      "eas": 1873,
      "object": 1874,
      "search": 1875,
      "including": 1876,
      "There": 1877,
      "open": 1878,
      "Ad": 1879,
      "ically": 1880,
      "sur": 1881,
      "curren": 1882,
      "less": 1883,
      "sour": 1884,
      "ature": 1885,
      "Co": 1886,
      "hand": 1887,
      "car": 1888,
      "pop": 1889,
      "lement": 1890,
      "ss": 1891,
      "very": 1892,
      "ved": 1893,
      "ential": 1894,
      "sa": 1895,
      "ized": 1896,
      "user": 1897,
      "include": 1898,
      "write": 1899,
      "long": 1900,
      "plain": 1901,
      "iqu": 1902,
      "tri": 1903,
      "pol": 1904,
      "pect": 1905,
      "had": 1906,
      "che": 1907,
      "sof": 1908,
      "cap": 1909,
      "type": 1910,
      "year": 1911,
      "Pro": 1912,
      "don": 1913,
      ");": 1914,
      "Ex": 1915,
      "input": 1916,
      "),": 1917,
      "perform": 1918,
      "value": 1919,
      "struct": 1920,
      "app": 1921,
      "gor": 1922,
      "design": 1923,
      "Un": 1924,
      "mer": 1925,
      "pen": 1926,
      "resul": 1927,
      "fr": 1928,
      "alth": 1929,
      "vis": 1930,
      "temp": 1931,
      "bel": 1932,
      "cond": 1933,
      "supp": 1934,
      "ribut": 1935,
      "kes": 1936,
      "view": 1937,
      "charac": 1938,
      "off": 1939,
      "impro": 1940,
      "ient": 1941,
      "mit": 1942,
      "air": 1943,
      "see": 1944,
      "real": 1945,
      "ons": 1946,
      "typ": 1947,
      "appro": 1948,
      ").": 1949,
      "logy": 1950,
      "meth": 1951,
      "possible": 1952,
      "red": 1953,
      "every": 1954,
      "ake": 1955,
      "pot": 1956,
      "place": 1957,
      "give": 1958,
      "gin": 1959,
      "wer": 1960,
      "oc": 1961,
      "nam": 1962,
      "proble": 1963,
      "bre": 1964,
      "ft": 1965,
      "uring": 1966,
      "require": 1967,
      "ution": 1968,
      "ness": 1969,
      "mil": 1970,
      "lead": 1971,
      "provid": 1972,
      "known": 1973,
      "side": 1974,
      "acti": 1975,
      "cept": 1976,
      "ict": 1977,
      "water": 1978,
      "gorith": 1979,
      "def": 1980,
      "learning": 1981,
      "serv": 1982,
      "even": 1983,
      "lease": 1984,
      "bi": 1985,
      "method": 1986,
      "move": 1987,
      "current": 1988,
      "contro": 1989,
      "both": 1990,
      "jo": 1991,
      "effect": 1992,
      "return": 1993,
      "large": 1994,
      "ily": 1995,
      "small": 1996,
      "ket": 1997,
      "We": 1998,
      "ody": 1999,
      "equ": 2000,
      "learn": 2001,
      "complex": 2002,
      "Al": 2003,
      "commun": 2004,
      "sing": 2005,
      "project": 2006,
      "applic": 2007,
      "ural": 2008,
      "writ": 2009,
      "cle": 2010,
      "right": 2011,
      "oper": 2012,
      "mean": 2013,
      "sci": 2014,
      "incre": 2015,
      "rain": 2016,
      "ner": 2017,
      "tal": 2018,
      "stud": 2019,
      "tool": 2020,
      "gan": 2021,
      "mu": 2022,
      "compu": 2023,
      "algorith": 2024,
      "war": 2025,
      "proper": 2026,
      "feel": 2027,
      "og": 2028,
      "energy": 2029,
      "pat": 2030,
      "ident": 2031,
      "conne": 2032,
      "ding": 2033,
      "ism": 2034,
      "might": 2035,
      "inu": 2036,
      "programm": 2037,
      "Open": 2038,
      "fri": 2039,
      "ify": 2040,
      "::": 2041,
      "They": 2042,
      "Is": 2043,
      "ines": 2044,
      "making": 2045,
      "ward": 2046,
      "ety": 2047,
      "following": 2048,
      "sc": 2049,
      "tom": 2050,
      "emp": 2051,
      "):": 2052,
      "ization": 2053,
      "De": 2054,
      "better": 2055,
      "viron": 2056,
      "direct": 2057,
      "atures": 2058,
      "network": 2059,
      "popular": 2060,
      "Do": 2061,
      "level": 2062,
      "explain": 2063,
      "partic": 2064,
      "hist": 2065,
      "made": 2066,
      "clo": 2067,
      "often": 2068,
      "cu": 2069,
      "ht": 2070,
      "ian": 2071,
      "uses": 2072,
      "much": 2073,
      "order": 2074,
      "gl": 2075,
      "tware": 2076,
      "ult": 2077,
      "health": 2078,
      "friend": 2079,
      "Some": 2080,
      "multi": 2081,
      "around": 2082,
      "sto": 2083,
      "answer": 2084,
      "invol": 2085,
      "here": 2086,
      "These": 2087,
      "Please": 2088,
      "Add": 2089,
      "point": 2090,
      "Python": 2091,
      "ger": 2092,
      "environ": 2093,
      "lot": 2094,
      "same": 2095,
      "free": 2096,
      "because": 2097,
      "source": 2098,
      "techno": 2099,
      "hard": 2100,
      "ank": 2101,
      "elect": 2102,
      "loc": 2103,
      "istant": 2104,
      "pu": 2105,
      "tas": 2106,
      "And": 2107,
      "now": 2108,
      "sever": 2109,
      "unt": 2110,
      "const": 2111,
      "interest": 2112,
      "tell": 2113,
      "range": 2114,
      "state": 2115,
      "without": 2116,
      "body": 2117,
      "leg": 2118,
      "ied": 2119,
      "sit": 2120,
      "ax": 2121,
      "ven": 2122,
      "mal": 2123,
      "pur": 2124,
      "before": 2125,
      "vent": 2126,
      "improve": 2127,
      "software": 2128,
      "word": 2129,
      "Go": 2130,
      "few": 2131,
      "dr": 2132,
      "chan": 2133,
      "000": 2134,
      "atch": 2135,
      "training": 2136,
      "fam": 2137,
      "load": 2138,
      "happ": 2139,
      "book": 2140,
      ",,": 2141,
      "look": 2142,
      "lay": 2143,
      "chang": 2144,
      "Sure": 2145,
      "ited": 2146,
      "mach": 2147,
      "sty": 2148,
      "fiel": 2149,
      "present": 2150,
      ".\"": 2151,
      "computer": 2152,
      "bers": 2153,
      "image": 2154,
      "mag": 2155,
      "contain": 2156,
      "great": 2157,
      "systems": 2158,
      "redu": 2159,
      "ational": 2160,
      "access": 2161,
      "bal": 2162,
      "story": 2163,
      "la": 2164,
      "py": 2165,
      "change": 2166,
      "mess": 2167,
      "soci": 2168,
      "keep": 2169,
      "face": 2170,
      "head": 2171,
      "script": 2172,
      "control": 2173,
      "size": 2174,
      "oid": 2175,
      "food": 2176,
      "cis": 2177,
      "still": 2178,
      "she": 2179,
      "exist": 2180,
      "GP": 2181,
      "development": 2182,
      "--------": 2183,
      "blo": 2184,
      "product": 2185,
      "term": 2186,
      "ted": 2187,
      "steps": 2188,
      "ray": 2189,
      "gen": 2190,
      "ship": 2191,
      "pass": 2192,
      "again": 2193,
      "dra": 2194,
      "</": 2195,
      "giv": 2196,
      "resour": 2197,
      "care": 2198,
      "something": 2199,
      "ris": 2200,
      "site": 2201,
      "iness": 2202,
      "simple": 2203,
      "programming": 2204,
      "On": 2205,
      "bot": 2206,
      "mus": 2207,
      "ints": 2208,
      "ious": 2209,
      "cli": 2210,
      "ath": 2211,
      "environment": 2212,
      "sha": 2213,
      "path": 2214,
      "print": 2215,
      "ref": 2216,
      "command": 2217,
      "character": 2218,
      "sive": 2219,
      "connect": 2220,
      "though": 2221,
      "prof": 2222,
      "after": 2223,
      "ier": 2224,
      "ivid": 2225,
      "questions": 2226,
      "ix": 2227,
      "deta": 2228,
      "issu": 2229,
      "mis": 2230,
      "individ": 2231,
      "flu": 2232,
      "grow": 2233,
      "effic": 2234,
      "11": 2235,
      "ggest": 2236,
      "ince": 2237,
      "valu": 2238,
      "lab": 2239,
      "ather": 2240,
      "output": 2241,
      "graph": 2242,
      "econ": 2243,
      "question": 2244,
      "found": 2245,
      "(\"": 2246,
      "=\"": 2247,
      "support": 2248,
      "things": 2249,
      "ton": 2250,
      "phys": 2251,
      "ream": 2252,
      "ases": 2253,
      "ord": 2254,
      "experience": 2255,
      "please": 2256,
      "12": 2257,
      "But": 2258,
      "individual": 2259,
      "Be": 2260,
      "land": 2261,
      "suggest": 2262,
      "vely": 2263,
      "itive": 2264,
      "date": 2265,
      "techn": 2266,
      "ights": 2267,
      "itional": 2268,
      "board": 2269,
      "conf": 2270,
      "several": 2271,
      "vol": 2272,
      "Ar": 2273,
      "program": 2274,
      "__": 2275,
      "show": 2276,
      "reat": 2277,
      "commend": 2278,
      "oking": 2279,
      "ins": 2280,
      "Wr": 2281,
      "tect": 2282,
      "years": 2283,
      "cell": 2284,
      "test": 2285,
      "ilo": 2286,
      "When": 2287,
      "har": 2288,
      "too": 2289,
      "da": 2290,
      "verse": 2291,
      "Use": 2292,
      "avail": 2293,
      "signific": 2294,
      "ared": 2295,
      "lik": 2296,
      "ique": 2297,
      "wid": 2298,
      "hy": 2299,
      "recommend": 2300,
      "ense": 2301,
      "table": 2302,
      "ges": 2303,
      "ub": 2304,
      "dev": 2305,
      "dri": 2306,
      "called": 2307,
      "those": 2308,
      "impact": 2309,
      "bed": 2310,
      "old": 2311,
      "tions": 2312,
      "amoun": 2313,
      "actions": 2314,
      "chall": 2315,
      "reas": 2316,
      "organ": 2317,
      "ieve": 2318,
      "uni": 2319,
      "case": 2320,
      "sum": 2321,
      "action": 2322,
      "must": 2323,
      "mind": 2324,
      "think": 2325,
      "pract": 2326,
      "python": 2327,
      "research": 2328,
      "ator": 2329,
      "ional": 2330,
      "fra": 2331,
      "fut": 2332,
      "times": 2333,
      "Cre": 2334,
      "server": 2335,
      "potential": 2336,
      "',": 2337,
      "did": 2338,
      "acy": 2339,
      "color": 2340,
      "cover": 2341,
      "works": 2342,
      "space": 2343,
      "say": 2344,
      "sequ": 2345,
      "ually": 2346,
      "ark": 2347,
      "defin": 2348,
      "speed": 2349,
      "publ": 2350,
      "during": 2351,
      "item": 2352,
      "words": 2353,
      "tasks": 2354,
      "indow": 2355,
      "ron": 2356,
      "why": 2357,
      "anal": 2358,
      "erial": 2359,
      "features": 2360,
      "ave": 2361,
      "usion": 2362,
      "ore": 2363,
      "implement": 2364,
      "personal": 2365,
      "means": 2366,
      "ists": 2367,
      "Write": 2368,
      "algorithm": 2369,
      "skill": 2370,
      "general": 2371,
      "him": 2372,
      "resources": 2373,
      "themat": 2374,
      "trad": 2375,
      "ency": 2376,
      "quality": 2377,
      "calcul": 2378,
      "common": 2379,
      "libr": 2380,
      "others": 2381,
      "iter": 2382,
      "==": 2383,
      "ables": 2384,
      "uc": 2385,
      "ensure": 2386,
      "comb": 2387,
      "machine": 2388,
      "available": 2389,
      "understanding": 2390,
      "One": 2391,
      "significant": 2392,
      "always": 2393,
      "ilities": 2394,
      "factors": 2395,
      "ead": 2396,
      "ross": 2397,
      "lic": 2398,
      "beha": 2399,
      "style": 2400,
      "future": 2401,
      "points": 2402,
      "bit": 2403,
      "ror": 2404,
      "cut": 2405,
      "cra": 2406,
      "ric": 2407,
      "ash": 2408,
      "cost": 2409,
      "My": 2410,
      "various": 2411,
      "correct": 2412,
      "No": 2413,
      "grou": 2414,
      "aster": 2415,
      "ling": 2416,
      "ased": 2417,
      "bus": 2418,
      "history": 2419,
      "content": 2420,
      "problem": 2421,
      "cing": 2422,
      "examples": 2423,
      "behavi": 2424,
      "diffic": 2425,
      "limit": 2426,
      "website": 2427,
      "itions": 2428,
      "material": 2429,
      "ture": 2430,
      "io": 2431,
      "ben": 2432,
      "ground": 2433,
      "htt": 2434,
      "social": 2435,
      "comput": 2436,
      "pack": 2437,
      "descri": 2438,
      "install": 2439,
      "ava": 2440,
      "Hel": 2441,
      "omic": 2442,
      "ible": 2443,
      "models": 2444,
      "likely": 2445,
      "until": 2446,
      "ball": 2447,
      "technology": 2448,
      "sun": 2449,
      "activ": 2450,
      "tle": 2451,
      "short": 2452,
      "://": 2453,
      "needs": 2454,
      "loy": 2455,
      "company": 2456,
      "nor": 2457,
      "mathemat": 2458,
      "AP": 2459,
      "request": 2460,
      "idea": 2461,
      "\".": 2462,
      "fac": 2463,
      "member": 2464,
      "sent": 2465,
      "ital": 2466,
      "necess": 2467,
      "ately": 2468,
      "response": 2469,
      "result": 2470,
      "termin": 2471,
      "field": 2472,
      "ars": 2473,
      "performance": 2474,
      "allows": 2475,
      "arth": 2476,
      "simil": 2477,
      "strate": 2478,
      "ication": 2479,
      "curity": 2480,
      "pattern": 2481,
      "ties": 2482,
      "soph": 2483,
      "event": 2484,
      "relation": 2485,
      "certain": 2486,
      "ellig": 2487,
      "itical": 2488,
      "another": 2489,
      "users": 2490,
      "refer": 2491,
      "engine": 2492,
      "ively": 2493,
      "ledge": 2494,
      "rad": 2495,
      "intellig": 2496,
      "local": 2497,
      "ants": 2498,
      "approach": 2499,
      "similar": 2500,
      "types": 2501,
      "nat": 2502,
      "Wor": 2503,
      "tools": 2504,
      "files": 2505,
      "hold": 2506,
      "note": 2507,
      "Could": 2508,
      "ele": 2509,
      "message": 2510,
      "fur": 2511,
      "uro": 2512,
      "promp": 2513,
      "anim": 2514,
      "summ": 2515,
      "else": 2516,
      "multiple": 2517,
      "challeng": 2518,
      "gam": 2519,
      "check": 2520,
      "##": 2521,
      "els": 2522,
      "numbers": 2523,
      "begin": 2524,
      "stat": 2525,
      "squ": 2526,
      "Create": 2527,
      "quant": 2528,
      "count": 2529,
      "ones": 2530,
      "become": 2531,
      "focus": 2532,
      "por": 2533,
      "yourself": 2534,
      "appe": 2535,
      "gs": 2536,
      "amount": 2537,
      "18": 2538,
      "ils": 2539,
      "Ass": 2540,
      "string": 2541,
      "theory": 2542,
      "values": 2543,
      "15": 2544,
      "writing": 2545,
      "scient": 2546,
      "ories": 2547,
      "meaning": 2548,
      "inte": 2549,
      "room": 2550,
      "ib": 2551,
      "That": 2552,
      "ey": 2553,
      "unique": 2554,
      "changes": 2555,
      "sound": 2556,
      "Jo": 2557,
      "rele": 2558,
      "ctions": 2559,
      "mor": 2560,
      "uck": 2561,
      "ength": 2562,
      "block": 2563,
      "itch": 2564,
      "strong": 2565,
      "context": 2566,
      "beli": 2567,
      "30": 2568,
      "suc": 2569,
      "gether": 2570,
      "due": 2571,
      "team": 2572,
      "meas": 2573,
      "languages": 2574,
      "Tr": 2575,
      "gn": 2576,
      "imm": 2577,
      "tar": 2578,
      "Earth": 2579,
      "next": 2580,
      "explo": 2581,
      "Let": 2582,
      "Over": 2583,
      "given": 2584,
      "fast": 2585,
      "sets": 2586,
      "ken": 2587,
      "By": 2588,
      "sor": 2589,
      "knowledge": 2590,
      "study": 2591,
      "terms": 2592,
      "online": 2593,
      "ctor": 2594,
      "ery": 2595,
      "sal": 2596,
      "ives": 2597,
      "dig": 2598,
      "generate": 2599,
      "atform": 2600,
      "und": 2601,
      "moder": 2602,
      "Yes": 2603,
      "ilosoph": 2604,
      "ns": 2605,
      "contribut": 2606,
      "logical": 2607,
      "whe": 2608,
      "inux": 2609,
      "anything": 2610,
      "https": 2611,
      "][": 2612,
      "skills": 2613,
      "...": 2614,
      "clear": 2615,
      "Your": 2616,
      "difficult": 2617,
      "Assistant": 2618,
      "orig": 2619,
      "card": 2620,
      "law": 2621,
      "natural": 2622,
      "easy": 2623,
      "since": 2624,
      "With": 2625,
      "security": 2626,
      "While": 2627,
      "HT": 2628,
      "influ": 2629,
      "sw": 2630,
      "reach": 2631,
      "pose": 2632,
      "comes": 2633,
      "building": 2634,
      "far": 2635,
      "xim": 2636,
      "den": 2637,
      "position": 2638,
      "applications": 2639,
      "three": 2640,
      "humans": 2641,
      "creating": 2642,
      "ome": 2643,
      "anced": 2644,
      "platform": 2645,
      "Bo": 2646,
      "base": 2647,
      "rest": 2648,
      "Mo": 2649,
      "vert": 2650,
      "invest": 2651,
      "scal": 2652,
      "optim": 2653,
      "rit": 2654,
      "ender": 2655,
      "particular": 2656,
      "benef": 2657,
      "ention": 2658,
      "leep": 2659,
      "itionally": 2660,
      "202": 2661,
      "version": 2662,
      "100": 2663,
      "wo": 2664,
      "accur": 2665,
      "mechan": 2666,
      "gover": 2667,
      "considered": 2668,
      "Hello": 2669,
      "──": 2670,
      "enough": 2671,
      "ouse": 2672,
      "safe": 2673,
      "lish": 2674,
      "together": 2675,
      "joy": 2676,
      "ware": 2677,
      "necessary": 2678,
      "~~": 2679,
      "force": 2680,
      "structure": 2681,
      "represent": 2682,
      "mb": 2683,
      "someone": 2684,
      "within": 2685,
      "weight": 2686,
      "kind": 2687,
      "looking": 2688,
      "problems": 2689,
      "provides": 2690,
      "makes": 2691,
      "public": 2692,
      "relationship": 2693,
      "ires": 2694,
      "non": 2695,
      "eth": 2696,
      "frame": 2697,
      "plac": 2698,
      "Make": 2699,
      "ww": 2700,
      "ances": 2701,
      "('": 2702,
      "ont": 2703,
      "decis": 2704,
      "cannot": 2705,
      "love": 2706,
      "init": 2707,
      "child": 2708,
      "ek": 2709,
      "job": 2710,
      "rand": 2711,
      "Are": 2712,
      "js": 2713,
      "ready": 2714,
      "Se": 2715,
      "home": 2716,
      "pan": 2717,
      "cies": 2718,
      "quick": 2719,
      "issues": 2720,
      "root": 2721,
      "))": 2722,
      "\":": 2723,
      "Why": 2724,
      "ours": 2725,
      "behavior": 2726,
      "flow": 2727,
      "prevent": 2728,
      "minut": 2729,
      "met": 2730,
      "Linux": 2731,
      "offer": 2732,
      "distance": 2733,
      "video": 2734,
      "business": 2735,
      "profess": 2736,
      "16": 2737,
      "temper": 2738,
      "cry": 2739,
      "MM": 2740,
      "scre": 2741,
      "ustr": 2742,
      "hope": 2743,
      "application": 2744,
      "distribut": 2745,
      "tit": 2746,
      "efficient": 2747,
      "services": 2748,
      "philosoph": 2749,
      "ium": 2750,
      "roll": 2751,
      "tun": 2752,
      "going": 2753,
      "intelligence": 2754,
      "task": 2755,
      "mail": 2756,
      "objects": 2757,
      "ination": 2758,
      "],": 2759,
      "ired": 2760,
      "success": 2761,
      "against": 2762,
      "song": 2763,
      "Lo": 2764,
      "basic": 2765,
      "Java": 2766,
      "mic": 2767,
      "ats": 2768,
      "cogn": 2769,
      "manage": 2770,
      "scen": 2771,
      "syn": 2772,
      "craft": 2773,
      "ff": 2774,
      "tru": 2775,
      "Not": 2776,
      "ush": 2777,
      "origin": 2778,
      "GPT": 2779,
      "Additionally": 2780,
      "thor": 2781,
      "prefer": 2782,
      "abilities": 2783,
      "late": 2784,
      "25": 2785,
      "aper": 2786,
      "role": 2787,
      "attack": 2788,
      "market": 2789,
      "cir": 2790,
      "ru": 2791,
      "takes": 2792,
      "array": 2793,
      "avoid": 2794,
      "docu": 2795,
      "compon": 2796,
      "reduce": 2797,
      "draw": 2798,
      "travel": 2799,
      "address": 2800,
      "meric": 2801,
      "bar": 2802,
      "iques": 2803,
      "iled": 2804,
      "advant": 2805,
      "Comp": 2806,
      "itor": 2807,
      "maintain": 2808,
      "aim": 2809,
      "rodu": 2810,
      "fully": 2811,
      "call": 2812,
      "last": 2813,
      "ideas": 2814,
      "evol": 2815,
      "subject": 2816,
      "length": 2817,
      "area": 2818,
      "Americ": 2819,
      "dy": 2820,
      "designed": 2821,
      "left": 2822,
      "regular": 2823,
      "ded": 2824,
      "cou": 2825,
      "music": 2826,
      "^^": 2827,
      "oney": 2828,
      "fall": 2829,
      "aking": 2830,
      "ression": 2831,
      "aries": 2832,
      "deep": 2833,
      "running": 2834,
      "loop": 2835,
      "goals": 2836,
      "send": 2837,
      "World": 2838,
      "Des": 2839,
      "Pr": 2840,
      "ified": 2841,
      "having": 2842,
      "display": 2843,
      "related": 2844,
      "single": 2845,
      "techniques": 2846,
      "govern": 2847,
      "iting": 2848,
      "continu": 2849,
      "Bu": 2850,
      "today": 2851,
      "ird": 2852,
      "working": 2853,
      "modern": 2854,
      "second": 2855,
      "\")": 2856,
      "ata": 2857,
      "increase": 2858,
      "ral": 2859,
      "virt": 2860,
      "ime": 2861,
      "options": 2862,
      "fit": 2863,
      "mix": 2864,
      "instead": 2865,
      "variety": 2866,
      "memory": 2867,
      "mental": 2868,
      "izing": 2869,
      "created": 2870,
      "200": 2871,
      "special": 2872,
      "quantum": 2873,
      "images": 2874,
      "library": 2875,
      "++": 2876,
      "Or": 2877,
      "done": 2878,
      "pare": 2879,
      "bro": 2880,
      "LE": 2881,
      "protect": 2882,
      "cording": 2883,
      "economic": 2884,
      "pts": 2885,
      "depending": 2886,
      "Fin": 2887,
      "player": 2888,
      "lit": 2889,
      "vious": 2890,
      "concept": 2891,
      "List": 2892,
      "bon": 2893,
      "group": 2894,
      "cture": 2895,
      "expect": 2896,
      "family": 2897,
      "ides": 2898,
      "results": 2899,
      "IN": 2900,
      "sco": 2901,
      "true": 2902,
      "sort": 2903,
      "priv": 2904,
      "physical": 2905,
      "pay": 2906,
      "community": 2907,
      "idence": 2908,
      "methods": 2909,
      "pie": 2910,
      "Thank": 2911,
      "Sh": 2912,
      "country": 2913,
      "She": 2914,
      "flo": 2915,
      "science": 2916,
      "ury": 2917,
      "ension": 2918,
      "track": 2919,
      "involves": 2920,
      "cise": 2921,
      "situ": 2922,
      "angle": 2923,
      "minutes": 2924,
      "Le": 2925,
      "option": 2926,
      "service": 2927,
      "wal": 2928,
      ",\"": 2929,
      "sleep": 2930,
      "argu": 2931,
      "pred": 2932,
      "helps": 2933,
      "usu": 2934,
      "ogle": 2935,
      "gain": 2936,
      "never": 2937,
      "functions": 2938,
      "seem": 2939,
      "termine": 2940,
      "Once": 2941,
      "atter": 2942,
      "ensive": 2943,
      "characters": 2944,
      "cket": 2945,
      "trained": 2946,
      "urope": 2947,
      "nature": 2948,
      "host": 2949,
      "lete": 2950,
      "target": 2951,
      "Pl": 2952,
      "plot": 2953,
      "mage": 2954,
      "mid": 2955,
      "API": 2956,
      "games": 2957,
      "tries": 2958,
      "ches": 2959,
      "exer": 2960,
      "enter": 2961,
      "fix": 2962,
      "break": 2963,
      "ses": 2964,
      "achieve": 2965,
      "abo": 2966,
      "istic": 2967,
      "active": 2968,
      "ML": 2969,
      "tract": 2970,
      "custom": 2971,
      "United": 2972,
      "13": 2973,
      "sis": 2974,
      "fig": 2975,
      "further": 2976,
      "Che": 2977,
      "really": 2978,
      "lying": 2979,
      "elements": 2980,
      "ules": 2981,
      "rece": 2982,
      "prompt": 2983,
      "RE": 2984,
      "came": 2985,
      "layer": 2986,
      "ON": 2987,
      "remain": 2988,
      "audi": 2989,
      "ending": 2990,
      "mark": 2991,
      "super": 2992,
      "share": 2993,
      "setting": 2994,
      "reason": 2995,
      "QL": 2996,
      "glo": 2997,
      "valid": 2998,
      "universe": 2999,
      "datab": 3000,
      "ml": 3001,
      "tic": 3002,
      "ech": 3003,
      "sion": 3004,
      "brain": 3005,
      "affect": 3006,
      "items": 3007,
      "14": 3008,
      "ulation": 3009,
      "emo": 3010,
      "modif": 3011,
      "prog": 3012,
      "live": 3013,
      "lower": 3014,
      "Joh": 3015,
      "movi": 3016,
      "neg": 3017,
      "jor": 3018,
      "Dis": 3019,
      "At": 3020,
      "ste": 3021,
      "reng": 3022,
      "pain": 3023,
      "powerful": 3024,
      "city": 3025,
      "Engl": 3026,
      "altern": 3027,
      "feed": 3028,
      "wide": 3029,
      "big": 3030,
      "rather": 3031,
      "clean": 3032,
      "shape": 3033,
      "Name": 3034,
      "gar": 3035,
      "ivity": 3036,
      "smo": 3037,
      "format": 3038,
      "wood": 3039,
      "ID": 3040,
      "easier": 3041,
      "labor": 3042,
      "difference": 3043,
      "choice": 3044,
      "players": 3045,
      "random": 3046,
      "solve": 3047,
      "transform": 3048,
      "additional": 3049,
      "pair": 3050,
      "sens": 3051,
      "zer": 3052,
      "AM": 3053,
      "Europe": 3054,
      "asy": 3055,
      "started": 3056,
      "50": 3057,
      "tax": 3058,
      "needed": 3059,
      "ysis": 3060,
      "stay": 3061,
      "directory": 3062,
      "property": 3063,
      "document": 3064,
      "aut": 3065,
      "least": 3066,
      "mod": 3067,
      "mut": 3068,
      "risk": 3069,
      "choose": 3070,
      "away": 3071,
      "cel": 3072,
      "useful": 3073,
      "center": 3074,
      "solution": 3075,
      "page": 3076,
      "Chat": 3077,
      "cour": 3078,
      "money": 3079,
      "grad": 3080,
      "sense": 3081,
      "post": 3082,
      "trying": 3083,
      "areas": 3084,
      "dog": 3085,
      "AR": 3086,
      "attention": 3087,
      "ler": 3088,
      "error": 3089,
      "doing": 3090,
      "coming": 3091,
      "vant": 3092,
      "algorithms": 3093,
      "goal": 3094,
      "reli": 3095,
      "Res": 3096,
      "ney": 3097,
      "aring": 3098,
      "paper": 3099,
      "society": 3100,
      "ablish": 3101,
      "political": 3102,
      "email": 3103,
      "ost": 3104,
      "contin": 3105,
      "anks": 3106,
      "wards": 3107,
      "inci": 3108,
      "etc": 3109,
      "window": 3110,
      "sib": 3111,
      "cup": 3112,
      "enjoy": 3113,
      "bor": 3114,
      "rout": 3115,
      "exe": 3116,
      "bow": 3117,
      "pho": 3118,
      "typically": 3119,
      "location": 3120,
      "ox": 3121,
      "media": 3122,
      "80": 3123,
      "17": 3124,
      "days": 3125,
      "scientific": 3126,
      "Ger": 3127,
      "Mar": 3128,
      "cient": 3129,
      "professional": 3130,
      "cious": 3131,
      "parame": 3132,
      "integr": 3133,
      "sources": 3134,
      "na": 3135,
      "determine": 3136,
      "Sy": 3137,
      "store": 3138,
      "events": 3139,
      "series": 3140,
      "above": 3141,
      "square": 3142,
      "virtual": 3143,
      "lection": 3144,
      "ched": 3145,
      "fish": 3146,
      "pes": 3147,
      "introdu": 3148,
      "individuals": 3149,
      "ancial": 3150,
      "details": 3151,
      "conditions": 3152,
      "occur": 3153,
      "employ": 3154,
      "God": 3155,
      "ade": 3156,
      "ik": 3157,
      "earth": 3158,
      "vo": 3159,
      "temperature": 3160,
      "brow": 3161,
      "minim": 3162,
      "named": 3163,
      "regard": 3164,
      "ilt": 3165,
      "produce": 3166,
      "includes": 3167,
      "vary": 3168,
      "verage": 3169,
      "starting": 3170,
      "screen": 3171,
      "determin": 3172,
      "config": 3173,
      "chem": 3174,
      "ju": 3175,
      "round": 3176,
      "pread": 3177,
      "ube": 3178,
      "asing": 3179,
      "requires": 3180,
      "quickly": 3181,
      "taking": 3182,
      "neural": 3183,
      "purpose": 3184,
      "happen": 3185,
      "aging": 3186,
      "Inter": 3187,
      "Ne": 3188,
      "illion": 3189,
      "cat": 3190,
      "reci": 3191,
      "recogn": 3192,
      "star": 3193,
      "New": 3194,
      "depends": 3195,
      "icy": 3196,
      "challenges": 3197,
      "tric": 3198,
      "whether": 3199,
      "standard": 3200,
      "chool": 3201,
      "fire": 3202,
      "nel": 3203,
      "Inst": 3204,
      "dex": 3205,
      "rength": 3206,
      "loss": 3207,
      "identify": 3208,
      "40": 3209,
      "Data": 3210,
      "Set": 3211,
      "gon": 3212,
      "said": 3213,
      "won": 3214,
      "hor": 3215,
      "box": 3216,
      "cially": 3217,
      "evidence": 3218,
      "appropri": 3219,
      "sed": 3220,
      "ane": 3221,
      "describe": 3222,
      "oud": 3223,
      "white": 3224,
      "prob": 3225,
      "pret": 3226,
      "review": 3227,
      "tomat": 3228,
      "soft": 3229,
      "stream": 3230,
      "major": 3231,
      "simul": 3232,
      "previous": 3233,
      "Overall": 3234,
      "lin": 3235,
      "once": 3236,
      "little": 3237,
      "ither": 3238,
      "assist": 3239,
      "already": 3240,
      "production": 3241,
      "week": 3242,
      "period": 3243,
      "Au": 3244,
      "lack": 3245,
      "utions": 3246,
      "cord": 3247,
      "ples": 3248,
      "ificial": 3249,
      "countries": 3250,
      "button": 3251,
      "higher": 3252,
      "ali": 3253,
      "adap": 3254,
      "conscious": 3255,
      "32": 3256,
      "LL": 3257,
      "dest": 3258,
      "seen": 3259,
      "bur": 3260,
      "night": 3261,
      "Col": 3262,
      "ently": 3263,
      "chain": 3264,
      "map": 3265,
      "gest": 3266,
      "eval": 3267,
      "ffic": 3268,
      "select": 3269,
      "author": 3270,
      "thought": 3271,
      "relevant": 3272,
      "height": 3273,
      "getting": 3274,
      "promo": 3275,
      "full": 3276,
      "cells": 3277,
      "App": 3278,
      "levels": 3279,
      "matter": 3280,
      "spir": 3281,
      "advanced": 3282,
      "English": 3283,
      "Ac": 3284,
      "sn": 3285,
      "effective": 3286,
      "dim": 3287,
      "provided": 3288,
      "materials": 3289,
      "ili": 3290,
      "coura": 3291,
      "Str": 3292,
      "Window": 3293,
      "requirements": 3294,
      "friends": 3295,
      "II": 3296,
      "hal": 3297,
      "consist": 3298,
      "measure": 3299,
      "associ": 3300,
      "raph": 3301,
      "tiv": 3302,
      "ially": 3303,
      "Script": 3304,
      "usually": 3305,
      "rup": 3306,
      "Ser": 3307,
      "roid": 3308,
      "financial": 3309,
      "zz": 3310,
      "UR": 3311,
      "exact": 3312,
      "aves": 3313,
      "ample": 3314,
      "doesn": 3315,
      "hardware": 3316,
      "egg": 3317,
      "oman": 3318,
      "press": 3319,
      "concer": 3320,
      "Af": 3321,
      "sequences": 3322,
      "men": 3323,
      "complet": 3324,
      "parts": 3325,
      "Google": 3326,
      "practice": 3327,
      "Imp": 3328,
      "np": 3329,
      "letter": 3330,
      "planet": 3331,
      "database": 3332,
      "ng": 3333,
      "processing": 3334,
      "conce": 3335,
      "States": 3336,
      "appropriate": 3337,
      "establish": 3338,
      "eved": 3339,
      "corpor": 3340,
      "leading": 3341,
      "remo": 3342,
      "highly": 3343,
      "house": 3344,
      "prote": 3345,
      "photo": 3346,
      "adjust": 3347,
      "??": 3348,
      "Rust": 3349,
      "ering": 3350,
      "devices": 3351,
      "Fe": 3352,
      "War": 3353,
      "descript": 3354,
      "colum": 3355,
      "AT": 3356,
      "Per": 3357,
      "ny": 3358,
      "growth": 3359,
      "wa": 3360,
      "complete": 3361,
      "continue": 3362,
      "fort": 3363,
      "bran": 3364,
      "legal": 3365,
      "black": 3366,
      "Qu": 3367,
      "buy": 3368,
      "course": 3369,
      "rot": 3370,
      "blue": 3371,
      "SQL": 3372,
      "\">": 3373,
      "patterns": 3374,
      "predict": 3375,
      "required": 3376,
      "Who": 3377,
      "positive": 3378,
      "exper": 3379,
      "')": 3380,
      "average": 3381,
      "ets": 3382,
      "helpful": 3383,
      "Now": 3384,
      "iency": 3385,
      "suit": 3386,
      "fill": 3387,
      "lat": 3388,
      "ull": 3389,
      "dom": 3390,
      "global": 3391,
      "sume": 3392,
      "frequ": 3393,
      "rules": 3394,
      "element": 3395,
      "cs": 3396,
      "collect": 3397,
      "developed": 3398,
      "ift": 3399,
      "device": 3400,
      "across": 3401,
      "convers": 3402,
      "electric": 3403,
      "analysis": 3404,
      "nov": 3405,
      "close": 3406,
      "dark": 3407,
      "cases": 3408,
      "opport": 3409,
      "avor": 3410,
      "opportun": 3411,
      "60": 3412,
      "worth": 3413,
      "Cl": 3414,
      "school": 3415,
      "ended": 3416,
      "Ph": 3417,
      "client": 3418,
      "AD": 3419,
      "playing": 3420,
      "html": 3421,
      "Cons": 3422,
      "scale": 3423,
      "believe": 3424,
      "width": 3425,
      "widely": 3426,
      "rate": 3427,
      "green": 3428,
      "benefits": 3429,
      "John": 3430,
      "assistant": 3431,
      "div": 3432,
      "forward": 3433,
      "explan": 3434,
      "watch": 3435,
      "Note": 3436,
      "bad": 3437,
      "ring": 3438,
      "strateg": 3439,
      "dream": 3440,
      "anger": 3441,
      "ged": 3442,
      "hind": 3443,
      "written": 3444,
      "dynam": 3445,
      "----------------": 3446,
      "projects": 3447,
      "government": 3448,
      "variable": 3449,
      "princi": 3450,
      "belief": 3451,
      "64": 3452,
      "hab": 3453,
      "espe": 3454,
      "ula": 3455,
      "tips": 3456,
      "normal": 3457,
      "respect": 3458,
      "analy": 3459,
      "traditional": 3460,
      "Get": 3461,
      "PC": 3462,
      "products": 3463,
      "meet": 3464,
      "teach": 3465,
      "logies": 3466,
      "Vi": 3467,
      "properties": 3468,
      "2023": 3469,
      "},": 3470,
      "que": 3471,
      "sorry": 3472,
      "American": 3473,
      "ned": 3474,
      "....": 3475,
      "especially": 3476,
      "Which": 3477,
      "aware": 3478,
      "interesting": 3479,
      "acts": 3480,
      "internet": 3481,
      "Finally": 3482,
      "mathematical": 3483,
      "Gener": 3484,
      "sites": 3485,
      "hours": 3486,
      "compan": 3487,
      "Mon": 3488,
      "oes": 3489,
      "ped": 3490,
      "separ": 3491,
      "effects": 3492,
      "ouble": 3493,
      "concepts": 3494,
      "link": 3495,
      "ute": 3496,
      "names": 3497,
      "package": 3498,
      "intern": 3499,
      "offers": 3500,
      "((": 3501,
      "treat": 3502,
      "inking": 3503,
      "built": 3504,
      "explore": 3505,
      "attemp": 3506,
      "progress": 3507,
      "ably": 3508,
      "Ste": 3509,
      "educ": 3510,
      "states": 3511,
      "unch": 3512,
      "dir": 3513,
      "sl": 3514,
      "drive": 3515,
      "strength": 3516,
      "ators": 3517,
      "Start": 3518,
      "summary": 3519,
      "harm": 3520,
      "dle": 3521,
      "OS": 3522,
      "topic": 3523,
      "grav": 3524,
      "tural": 3525,
      "colors": 3526,
      "prior": 3527,
      "vision": 3528,
      "mate": 3529,
      "currently": 3530,
      "cure": 3531,
      "differences": 3532,
      "||": 3533,
      "copy": 3534,
      "ends": 3535,
      "solar": 3536,
      "len": 3537,
      "Py": 3538,
      "ming": 3539,
      "weather": 3540,
      "original": 3541,
      "operating": 3542,
      "22": 3543,
      "tree": 3544,
      "lines": 3545,
      "histor": 3546,
      "ah": 3547,
      "mes": 3548,
      "dro": 3549,
      "account": 3550,
      "handle": 3551,
      "constant": 3552,
      "past": 3553,
      "omy": 3554,
      "rid": 3555,
      "along": 3556,
      "ChatGPT": 3557,
      "ging": 3558,
      "jour": 3559,
      "sel": 3560,
      "query": 3561,
      "ban": 3562,
      "mass": 3563,
      "factor": 3564,
      "heat": 3565,
      "behind": 3566,
      "hol": 3567,
      "phone": 3568,
      "paren": 3569,
      "First": 3570,
      "After": 3571,
      "aset": 3572,
      "icate": 3573,
      "sole": 3574,
      "cast": 3575,
      "remember": 3576,
      "enced": 3577,
      "longer": 3578,
      "got": 3579,
      "guid": 3580,
      "lu": 3581,
      "Explain": 3582,
      "Ke": 3583,
      "index": 3584,
      "radi": 3585,
      "HTML": 3586,
      "inside": 3587,
      "JavaScript": 3588,
      "archite": 3589,
      "Par": 3590,
      "healthy": 3591,
      "execut": 3592,
      "ife": 3593,
      "appear": 3594,
      "mel": 3595,
      "smaller": 3596,
      "decision": 3597,
      "either": 3598,
      "fre": 3599,
      "lives": 3600,
      "Brit": 3601,
      "near": 3602,
      "ping": 3603,
      "discus": 3604,
      "keyboard": 3605,
      "Man": 3606,
      "thread": 3607,
      "among": 3608,
      "Nor": 3609,
      "four": 3610,
      "books": 3611,
      "fusion": 3612,
      "industr": 3613,
      "industry": 3614,
      "developers": 3615,
      "sph": 3616,
      "omen": 3617,
      "perspect": 3618,
      "computing": 3619,
      "situation": 3620,
      "regul": 3621,
      "Try": 3622,
      "cross": 3623,
      "cook": 3624,
      "limited": 3625,
      "compet": 3626,
      "clusion": 3627,
      "commit": 3628,
      "stop": 3629,
      "issue": 3630,
      "Gree": 3631,
      "cool": 3632,
      "ries": 3633,
      "happy": 3634,
      "culture": 3635,
      "animals": 3636,
      "ai": 3637,
      "bra": 3638,
      "Def": 3639,
      "nut": 3640,
      "download": 3641,
      "evalu": 3642,
      "estim": 3643,
      "join": 3644,
      "ume": 3645,
      "efficiency": 3646,
      "igate": 3647,
      "updat": 3648,
      "providing": 3649,
      "front": 3650,
      "eat": 3651,
      "sat": 3652,
      "management": 3653,
      "Windows": 3654,
      "ived": 3655,
      "distribution": 3656,
      "dec": 3657,
      "counter": 3658,
      "artificial": 3659,
      "ker": 3660,
      "adding": 3661,
      "components": 3662,
      "Mod": 3663,
      "Ty": 3664,
      "accept": 3665,
      "bring": 3666,
      "])": 3667,
      "larger": 3668,
      "feedback": 3669,
      "detect": 3670,
      "heart": 3671,
      "species": 3672,
      "digital": 3673,
      "mode": 3674,
      "itself": 3675,
      "paint": 3676,
      "medical": 3677,
      "Cont": 3678,
      "surface": 3679,
      "ager": 3680,
      "processes": 3681,
      "central": 3682,
      "Of": 3683,
      "Ro": 3684,
      "TH": 3685,
      "istics": 3686,
      "timat": 3687,
      "->": 3688,
      "forms": 3689,
      "ancient": 3690,
      "stor": 3691,
      "pet": 3692,
      "sequence": 3693,
      "movie": 3694,
      "onal": 3695,
      "match": 3696,
      "early": 3697,
      "plant": 3698,
      "directly": 3699,
      "essential": 3700,
      "();": 3701,
      "survi": 3702,
      "consequences": 3703,
      "tional": 3704,
      "later": 3705,
      "CP": 3706,
      "throughout": 3707,
      "chat": 3708,
      "atively": 3709,
      "experiences": 3710,
      "Lear": 3711,
      "ification": 3712,
      "overall": 3713,
      "bio": 3714,
      "communication": 3715,
      "aur": 3716,
      "cum": 3717,
      "advantages": 3718,
      "young": 3719,
      "timately": 3720,
      "ond": 3721,
      "alse": 3722,
      "uration": 3723,
      "fields": 3724,
      "Pe": 3725,
      "orts": 3726,
      "compared": 3727,
      "generally": 3728,
      "CT": 3729,
      "Give": 3730,
      "apo": 3731,
      "izes": 3732,
      "connected": 3733,
      "robot": 3734,
      "price": 3735,
      "discover": 3736,
      "lands": 3737,
      "Li": 3738,
      "lap": 3739,
      "addition": 3740,
      "detailed": 3741,
      "son": 3742,
      "save": 3743,
      "background": 3744,
      "push": 3745,
      "Mic": 3746,
      "entire": 3747,
      "living": 3748,
      "psy": 3749,
      "izz": 3750,
      "bin": 3751,
      "era": 3752,
      "define": 3753,
      "fair": 3754,
      "ee": 3755,
      "confl": 3756,
      "structions": 3757,
      "activity": 3758,
      "From": 3759,
      "nu": 3760,
      "networks": 3761,
      "max": 3762,
      "win": 3763,
      "recent": 3764,
      "entially": 3765,
      "Pre": 3766,
      "Reg": 3767,
      "initial": 3768,
      "bs": 3769,
      "feature": 3770,
      "simply": 3771,
      "operations": 3772,
      "ale": 3773,
      "dataset": 3774,
      "IT": 3775,
      "itation": 3776,
      "wise": 3777,
      "cultural": 3778,
      "www": 3779,
      "az": 3780,
      "alle": 3781,
      "Emp": 3782,
      "perfect": 3783,
      "safety": 3784,
      "moun": 3785,
      "advent": 3786,
      "iss": 3787,
      "ethical": 3788,
      "physics": 3789,
      "shop": 3790,
      "Then": 3791,
      "sky": 3792,
      "month": 3793,
      "everything": 3794,
      "feeling": 3795,
      "dem": 3796,
      "associated": 3797,
      "gine": 3798,
      "ply": 3799,
      "reality": 3800,
      "fold": 3801,
      "total": 3802,
      "iel": 3803,
      "ibility": 3804,
      "title": 3805,
      "innov": 3806,
      "neur": 3807,
      "deb": 3808,
      "artic": 3809,
      "shot": 3810,
      "formula": 3811,
      "dients": 3812,
      "condition": 3813,
      "interested": 3814,
      "veget": 3815,
      "Comm": 3816,
      "mas": 3817,
      "dit": 3818,
      "arr": 3819,
      "accurate": 3820,
      "Check": 3821,
      "particularly": 3822,
      "ids": 3823,
      "yet": 3824,
      "duct": 3825,
      "specif": 3826,
      "negative": 3827,
      "pow": 3828,
      "relationships": 3829,
      "rock": 3830,
      "df": 3831,
      "wall": 3832,
      "batter": 3833,
      "requests": 3834,
      "variables": 3835,
      "slow": 3836,
      "aces": 3837,
      "password": 3838,
      "defined": 3839,
      "':": 3840,
      "foc": 3841,
      "visual": 3842,
      "hip": 3843,
      "calculate": 3844,
      "equal": 3845,
      "activities": 3846,
      "mechanics": 3847,
      "OR": 3848,
      "node": 3849,
      "smart": 3850,
      "suggestions": 3851,
      "iction": 3852,
      "reflect": 3853,
      "\"\"": 3854,
      "towards": 3855,
      "heav": 3856,
      "Another": 3857,
      "programs": 3858,
      "recipe": 3859,
      "AS": 3860,
      "expected": 3861,
      "Keep": 3862,
      "void": 3863,
      "aspect": 3864,
      "aving": 3865,
      "century": 3866,
      "Pi": 3867,
      "spread": 3868,
      "izations": 3869,
      "Also": 3870,
      "framework": 3871,
      "easily": 3872,
      ",,,,": 3873,
      "balance": 3874,
      "=>": 3875,
      "refers": 3876,
      "five": 3877,
      "icken": 3878,
      "3D": 3879,
      "plor": 3880,
      "var": 3881,
      "interface": 3882,
      "movement": 3883,
      "['": 3884,
      "quite": 3885,
      "hot": 3886,
      "became": 3887,
      "evolution": 3888,
      "oil": 3889,
      "rich": 3890,
      "students": 3891,
      "aling": 3892,
      "description": 3893,
      "JJ": 3894,
      "pper": 3895,
      "label": 3896,
      "IP": 3897,
      "██": 3898,
      "diet": 3899,
      "lies": 3900,
      "civ": 3901,
      "emer": 3902,
      "allowing": 3903,
      "piece": 3904,
      "remove": 3905,
      "faster": 3906,
      "tre": 3907,
      "micro": 3908,
      "Cal": 3909,
      "55": 3910,
      "scene": 3911,
      "ought": 3912,
      "gue": 3913,
      "ert": 3914,
      "final": 3915,
      "influence": 3916,
      "zing": 3917,
      "secure": 3918,
      "involve": 3919,
      "maxim": 3920,
      "cheese": 3921,
      "advice": 3922,
      "volume": 3923,
      "switch": 3924,
      "ault": 3925,
      "interact": 3926,
      "Bob": 3927,
      "ished": 3928,
      "libraries": 3929,
      "bud": 3930,
      "Thanks": 3931,
      "Each": 3932,
      "compos": 3933,
      "clar": 3934,
      "implementation": 3935,
      "nav": 3936,
      "exc": 3937,
      "trust": 3938,
      "express": 3939,
      "Me": 3940,
      "replace": 3941,
      "rix": 3942,
      "phen": 3943,
      "edi": 3944,
      "seas": 3945,
      "via": 3946,
      "complexity": 3947,
      "involved": 3948,
      "magic": 3949,
      "beaut": 3950,
      "click": 3951,
      "gold": 3952,
      "listen": 3953,
      "equation": 3954,
      "fee": 3955,
      "deli": 3956,
      "fight": 3957,
      "creates": 3958,
      "org": 3959,
      "Ge": 3960,
      "everyone": 3961,
      "Trans": 3962,
      "vector": 3963,
      "damage": 3964,
      "topics": 3965,
      "contains": 3966,
      "claim": 3967,
      "selves": 3968,
      ".,": 3969,
      "uel": 3970,
      "motiv": 3971,
      "bir": 3972,
      "stain": 3973,
      "custo": 3974,
      "ison": 3975,
      "Good": 3976,
      "actually": 3977,
      "mbol": 3978,
      "ners": 3979,
      "pip": 3980,
      "cape": 3981,
      "Val": 3982,
      "Int": 3983,
      "ica": 3984,
      "demon": 3985,
      "approxim": 3986,
      "EN": 3987,
      "danger": 3988,
      "sou": 3989,
      "199": 3990,
      "univers": 3991,
      "inecraft": 3992,
      "YouT": 3993,
      "companies": 3994,
      "section": 3995,
      "update": 3996,
      "apply": 3997,
      "recommended": 3998,
      "poly": 3999,
      "foot": 4000,
      "Po": 4001,
      "ina": 4002,
      "ister": 4003,
      "outside": 4004,
      "noise": 4005,
      "children": 4006,
      "architecture": 4007,
      "theore": 4008,
      "plants": 4009,
      "trade": 4010,
      "Build": 4011,
      "flex": 4012,
      "ised": 4013,
      "upon": 4014,
      "stack": 4015,
      "Dep": 4016,
      "dimens": 4017,
      "rection": 4018,
      "Act": 4019,
      "decisions": 4020,
      "parameters": 4021,
      "fine": 4022,
      "gas": 4023,
      "serve": 4024,
      "rows": 4025,
      "score": 4026,
      "consciousness": 4027,
      "courage": 4028,
      "24": 4029,
      "Her": 4030,
      "policy": 4031,
      "friendly": 4032,
      "famous": 4033,
      "Time": 4034,
      "gal": 4035,
      "phr": 4036,
      "fru": 4037,
      "cold": 4038,
      "resh": 4039,
      "ells": 4040,
      "Develop": 4041,
      "themselves": 4042,
      "audience": 4043,
      "mary": 4044,
      "threat": 4045,
      "infin": 4046,
      "Hi": 4047,
      "sess": 4048,
      "death": 4049,
      "follows": 4050,
      "connection": 4051,
      "particles": 4052,
      "graphics": 4053,
      "capture": 4054,
      "ease": 4055,
      "symbol": 4056,
      "alternative": 4057,
      "apan": 4058,
      "fel": 4059,
      "pite": 4060,
      "rise": 4061,
      "sentence": 4062,
      "yout": 4063,
      "achi": 4064,
      "kness": 4065,
      "creation": 4066,
      "ster": 4067,
      "cloud": 4068,
      "located": 4069,
      "camp": 4070,
      "Therefore": 4071,
      "whole": 4072,
      "climate": 4073,
      "combination": 4074,
      "────": 4075,
      "IM": 4076,
      "fail": 4077,
      "wrong": 4078,
      "speak": 4079,
      "All": 4080,
      "filter": 4081,
      "oth": 4082,
      "desired": 4083,
      "pressure": 4084,
      "increasing": 4085,
      "rench": 4086,
      "groups": 4087,
      "eyes": 4088,
      "places": 4089,
      "beliefs": 4090,
      "posit": 4091,
      "returns": 4092,
      "gment": 4093,
      "hear": 4094,
      "wanted": 4095,
      "instance": 4096,
      "String": 4097,
      "lock": 4098,
      "strings": 4099,
      "ands": 4100,
      "reasons": 4101,
      "Pri": 4102,
      "numer": 4103,
      "preferences": 4104,
      "privacy": 4105,
      "bri": 4106,
      "commonly": 4107,
      "carbon": 4108,
      "45": 4109,
      "stri": 4110,
      "Web": 4111,
      "novel": 4112,
      "half": 4113,
      "independ": 4114,
      "infr": 4115,
      "consu": 4116,
      "enem": 4117,
      "rat": 4118,
      "ed_": 4119,
      "kets": 4120,
      "posed": 4121,
      "?\"": 4122,
      "aily": 4123,
      "medium": 4124,
      "geome": 4125,
      "align": 4126,
      "possib": 4127,
      "layers": 4128,
      "blood": 4129,
      "ony": 4130,
      "attle": 4131,
      "warm": 4132,
      "contr": 4133,
      "Har": 4134,
      "Sun": 4135,
      "Fr": 4136,
      "linear": 4137,
      "talk": 4138,
      "advantage": 4139,
      "modify": 4140,
      "arian": 4141,
      "zero": 4142,
      "bound": 4143,
      "pick": 4144,
      "offee": 4145,
      "creative": 4146,
      "importance": 4147,
      "Just": 4148,
      "tor": 4149,
      "Remember": 4150,
      "Cho": 4151,
      "mathematics": 4152,
      "catch": 4153,
      "pi": 4154,
      "vul": 4155,
      "icious": 4156,
      "Where": 4157,
      "akes": 4158,
      "~~~~": 4159,
      "Japan": 4160,
      "ls": 4161,
      "videos": 4162,
      "strategies": 4163,
      "!\"": 4164,
      "strategy": 4165,
      "float": 4166,
      "figure": 4167,
      "insp": 4168,
      "wel": 4169,
      "ctors": 4170,
      "private": 4171,
      "pped": 4172,
      "volution": 4173,
      "component": 4174,
      "spl": 4175,
      "ulate": 4176,
      "responses": 4177,
      "branch": 4178,
      "technologies": 4179,
      "challenging": 4180,
      "bul": 4181,
      "sched": 4182,
      "stress": 4183,
      "liter": 4184,
      "77": 4185,
      "fan": 4186,
      "according": 4187,
      "android": 4188,
      "sustain": 4189,
      "csv": 4190,
      "historical": 4191,
      "Red": 4192,
      "glass": 4193,
      "column": 4194,
      "System": 4195,
      "however": 4196,
      "dead": 4197,
      "ussi": 4198,
      "emphas": 4199,
      "chuck": 4200,
      "pping": 4201,
      "wn": 4202,
      "ino": 4203,
      "graphy": 4204,
      "explanation": 4205,
      "tend": 4206,
      "taste": 4207,
      "cas": 4208,
      "solutions": 4209,
      "iliar": 4210,
      "err": 4211,
      "moving": 4212,
      "YouTube": 4213,
      ":**": 4214,
      "cam": 4215,
      "million": 4216,
      "moment": 4217,
      "lights": 4218,
      "pas": 4219,
      "thesis": 4220,
      "sil": 4221,
      "raw": 4222,
      "properly": 4223,
      "attacks": 4224,
      "65": 4225,
      "Roman": 4226,
      "ule": 4227,
      "incorpor": 4228,
      "ene": 4229,
      "speech": 4230,
      "presents": 4231,
      "Take": 4232,
      "principles": 4233,
      "civil": 4234,
      "inj": 4235,
      "solving": 4236,
      "respond": 4237,
      "exercise": 4238,
      "70": 4239,
      "oo": 4240,
      "conclusion": 4241,
      "argument": 4242,
      "third": 4243,
      "elling": 4244,
      "ordin": 4245,
      "quer": 4246,
      "Other": 4247,
      "tive": 4248,
      "strugg": 4249,
      "Bl": 4250,
      "hid": 4251,
      "chicken": 4252,
      "---": 4253,
      "surround": 4254,
      "combin": 4255,
      "hes": 4256,
      "walk": 4257,
      "daily": 4258,
      "mber": 4259,
      "appl": 4260,
      "subst": 4261,
      "expert": 4262,
      "Sw": 4263,
      "til": 4264,
      "ung": 4265,
      "shad": 4266,
      "greater": 4267,
      "experiment": 4268,
      "capable": 4269,
      "detail": 4270,
      "Out": 4271,
      "edge": 4272,
      "guit": 4273,
      "Provide": 4274,
      "operation": 4275,
      "token": 4276,
      "guide": 4277,
      "cm": 4278,
      "messages": 4279,
      "European": 4280,
      "ees": 4281,
      "ann": 4282,
      "structures": 4283,
      "crypt": 4284,
      "Greek": 4285,
      "ians": 4286,
      "itary": 4287,
      "taken": 4288,
      "philosophy": 4289,
      "View": 4290,
      "hi": 4291,
      "manip": 4292,
      "augh": 4293,
      "Car": 4294,
      "developing": 4295,
      "economy": 4296,
      "Id": 4297,
      "King": 4298,
      "May": 4299,
      "Using": 4300,
      "kill": 4301,
      "ites": 4302,
      "salt": 4303,
      "generation": 4304,
      "monitor": 4305,
      "eggs": 4306,
      "repe": 4307,
      "ternal": 4308,
      "adapt": 4309,
      "journey": 4310,
      "ingre": 4311,
      "soon": 4312,
      "Vis": 4313,
      "pto": 4314,
      "GPU": 4315,
      "MMMM": 4316,
      "bes": 4317,
      "explor": 4318,
      "notes": 4319,
      "Spe": 4320,
      "strict": 4321,
      "capital": 4322,
      "vulner": 4323,
      "asking": 4324,
      "coding": 4325,
      "autom": 4326,
      "rap": 4327,
      "container": 4328,
      "Git": 4329,
      "Min": 4330,
      "inct": 4331,
      "math": 4332,
      "mention": 4333,
      "poses": 4334,
      "generated": 4335,
      "status": 4336,
      "relig": 4337,
      "brea": 4338,
      "Don": 4339,
      "fing": 4340,
      "tical": 4341,
      "secre": 4342,
      "ception": 4343,
      "played": 4344,
      "responsible": 4345,
      "collection": 4346,
      "customer": 4347,
      "IS": 4348,
      "suitable": 4349,
      "radius": 4350,
      "CO": 4351,
      "psycho": 4352,
      "High": 4353,
      "Consider": 4354,
      "CSS": 4355,
      "render": 4356,
      "AL": 4357,
      "consul": 4358,
      "une": 4359,
      "symp": 4360,
      "Would": 4361,
      "outline": 4362,
      "Micro": 4363,
      "favor": 4364,
      "direction": 4365,
      "film": 4366,
      "gets": 4367,
      "authen": 4368,
      "electron": 4369,
      "wind": 4370,
      "computers": 4371,
      "existing": 4372,
      "existence": 4373,
      "French": 4374,
      "suming": 4375,
      "ffer": 4376,
      "agraph": 4377,
      "sides": 4378,
      "party": 4379,
      "sphere": 4380,
      "stock": 4381,
      "master": 4382,
      "platforms": 4383,
      "Ul": 4384,
      "hydr": 4385,
      "swe": 4386,
      "road": 4387,
      "Pol": 4388,
      "gi": 4389,
      "causes": 4390,
      "mist": 4391,
      "extre": 4392,
      "crimin": 4393,
      ".)": 4394,
      "ativity": 4395,
      "humanity": 4396,
      "gravity": 4397,
      "collabor": 4398,
      "earch": 4399,
      "ensity": 4400,
      "reference": 4401,
      "thinking": 4402,
      "inner": 4403,
      "ret": 4404,
      "reading": 4405,
      "talking": 4406,
      "statement": 4407,
      "^^^^": 4408,
      "core": 4409,
      "mole": 4410,
      "budget": 4411,
      "largest": 4412,
      "tures": 4413,
      "regularly": 4414,
      "chemical": 4415,
      "conversation": 4416,
      "potentially": 4417,
      "instructions": 4418,
      "sup": 4419,
      "tructure": 4420,
      "mac": 4421,
      "opin": 4422,
      "ials": 4423,
      "latest": 4424,
      "!!": 4425,
      "fir": 4426,
      "ellow": 4427,
      "depth": 4428,
      "laws": 4429,
      "json": 4430,
      "Cha": 4431,
      "seems": 4432,
      "opportunities": 4433,
      "ration": 4434,
      "outh": 4435,
      "filled": 4436,
      "changing": 4437,
      "vac": 4438,
      "Gu": 4439,
      "vas": 4440,
      "yond": 4441,
      "nothing": 4442,
      "99": 4443,
      "convert": 4444,
      "goes": 4445,
      "interpret": 4446,
      "stable": 4447,
      "reh": 4448,
      "actual": 4449,
      "vest": 4450,
      "critical": 4451,
      "guitar": 4452,
      "padd": 4453,
      "anti": 4454,
      "umb": 4455,
      "eye": 4456,
      "believed": 4457,
      "successful": 4458,
      "+=": 4459,
      "CS": 4460,
      "Great": 4461,
      "spect": 4462,
      "comfor": 4463,
      "interests": 4464,
      "Choose": 4465,
      "El": 4466,
      "coin": 4467,
      "chess": 4468,
      "weap": 4469,
      "gramm": 4470,
      "finding": 4471,
      "male": 4472,
      "extension": 4473,
      "transl": 4474,
      "::::": 4475,
      "exercis": 4476,
      "Cer": 4477,
      "practices": 4478,
      "meters": 4479,
      "Does": 4480,
      "console": 4481,
      "feet": 4482,
      "contact": 4483,
      "Char": 4484,
      "routine": 4485,
      "Dif": 4486,
      "matrix": 4487,
      "cru": 4488,
      "expand": 4489,
      "double": 4490,
      "lim": 4491,
      "caused": 4492,
      "controll": 4493,
      "IG": 4494,
      "sq": 4495,
      "healthcare": 4496,
      "Germany": 4497,
      "middle": 4498,
      "atmo": 4499,
      "transport": 4500,
      "asp": 4501,
      "began": 4502,
      "Text": 4503,
      "gather": 4504,
      "theories": 4505,
      "atic": 4506,
      "viol": 4507,
      "increased": 4508,
      "deci": 4509,
      "Type": 4510,
      "aged": 4511,
      "automat": 4512,
      "Ok": 4513,
      "irl": 4514,
      "concerns": 4515,
      "lightly": 4516,
      "websites": 4517,
      "members": 4518,
      "machines": 4519,
      "cate": 4520,
      "sounds": 4521,
      "isms": 4522,
      "didn": 4523,
      "ae": 4524,
      "ises": 4525,
      "0000": 4526,
      "functional": 4527,
      "23": 4528,
      "Fo": 4529,
      "Sp": 4530,
      "La": 4531,
      "Many": 4532,
      "effort": 4533,
      "scenari": 4534,
      "education": 4535,
      "Minecraft": 4536,
      "Tell": 4537,
      "preci": 4538,
      "specifically": 4539,
      "cro": 4540,
      "creatures": 4541,
      "electr": 4542,
      "compreh": 4543,
      "Net": 4544,
      "risks": 4545,
      "false": 4546,
      "hun": 4547,
      "sometimes": 4548,
      "transfer": 4549,
      "dangerous": 4550,
      "rist": 4551,
      "sus": 4552,
      "door": 4553,
      "offic": 4554,
      "logic": 4555,
      "ama": 4556,
      "pic": 4557,
      "mother": 4558,
      "Microsoft": 4559,
      "Gr": 4560,
      "plu": 4561,
      "emotions": 4562,
      "Define": 4563,
      "divid": 4564,
      "trig": 4565,
      "siz": 4566,
      "diag": 4567,
      "consistent": 4568,
      "Sol": 4569,
      "added": 4570,
      "region": 4571,
      "Since": 4572,
      "sample": 4573,
      "iful": 4574,
      "myself": 4575,
      "promote": 4576,
      "bank": 4577,
      "std": 4578,
      "ingredients": 4579,
      "astic": 4580,
      "flat": 4581,
      "reducing": 4582,
      "animal": 4583,
      "Er": 4584,
      "signal": 4585,
      "According": 4586,
      "toms": 4587,
      "ensor": 4588,
      "flour": 4589,
      "purch": 4590,
      "configuration": 4591,
      "`.": 4592,
      "rics": 4593,
      "flight": 4594,
      "voice": 4595,
      "mission": 4596,
      "perspective": 4597,
      "brief": 4598,
      "wers": 4599,
      "report": 4600,
      "odes": 4601,
      "ology": 4602,
      "AB": 4603,
      "fant": 4604,
      "represents": 4605,
      "eline": 4606,
      "Learning": 4607,
      "coffee": 4608,
      "pha": 4609,
      "enge": 4610,
      "impos": 4611,
      "hands": 4612,
      "familiar": 4613,
      "33": 4614,
      "gender": 4615,
      "indust": 4616,
      "news": 4617,
      "CE": 4618,
      "agree": 4619,
      "iven": 4620,
      "organization": 4621,
      "evil": 4622,
      "supply": 4623,
      "terminal": 4624,
      "contribute": 4625,
      "placed": 4626,
      "rule": 4627,
      "sea": 4628,
      "invent": 4629,
      "']": 4630,
      "Su": 4631,
      "_path": 4632,
      "ley": 4633,
      "mocr": 4634,
      "apart": 4635,
      "primary": 4636,
      "capabilities": 4637,
      "technical": 4638,
      "comfortable": 4639,
      "served": 4640,
      "accuracy": 4641,
      "extract": 4642,
      "ames": 4643,
      "compat": 4644,
      "auto": 4645,
      "versity": 4646,
      "resulting": 4647,
      "satis": 4648,
      "Image": 4649,
      "Ma": 4650,
      "notation": 4651,
      "asyn": 4652,
      "anyone": 4653,
      "van": 4654,
      "prompts": 4655,
      "beyond": 4656,
      "consult": 4657,
      "Russi": 4658,
      "gers": 4659,
      "advance": 4660,
      "testing": 4661,
      "atives": 4662,
      "engage": 4663,
      "conflict": 4664,
      "cil": 4665,
      "proto": 4666,
      "paddle": 4667,
      "Lu": 4668,
      "crypto": 4669,
      "battery": 4670,
      "approximately": 4671,
      "asked": 4672,
      "encies": 4673,
      "military": 4674,
      "storage": 4675,
      "vill": 4676,
      "bright": 4677,
      "phenomen": 4678,
      "atory": 4679,
      "ouch": 4680,
      "effectively": 4681,
      "valuable": 4682,
      "measures": 4683,
      "plane": 4684,
      "continues": 4685,
      "folder": 4686,
      "exercises": 4687,
      "reply": 4688,
      "attribut": 4689,
      "exactly": 4690,
      "eating": 4691,
      "saw": 4692,
      "curve": 4693,
      "prime": 4694,
      "default": 4695,
      "Port": 4696,
      "dry": 4697,
      "reps": 4698,
      "illed": 4699,
      "construct": 4700,
      "solid": 4701,
      "costs": 4702,
      "proof": 4703,
      "util": 4704,
      "Ite": 4705,
      "reposit": 4706,
      "sho": 4707,
      "immedi": 4708,
      "determined": 4709,
      "Ap": 4710,
      "hair": 4711,
      "ously": 4712,
      "90": 4713,
      "aly": 4714,
      "stu": 4715,
      "lications": 4716,
      "Pres": 4717,
      "owners": 4718,
      "relax": 4719,
      "URL": 4720,
      "focused": 4721,
      "bird": 4722,
      "instru": 4723,
      "Read": 4724,
      "drink": 4725,
      "meant": 4726,
      "classical": 4727,
      "established": 4728,
      "Dr": 4729,
      "lyrics": 4730,
      "heard": 4731,
      "qual": 4732,
      "compare": 4733,
      "below": 4734,
      "Sub": 4735,
      "estern": 4736,
      "funda": 4737,
      "expensive": 4738,
      "environmental": 4739,
      "econom": 4740,
      "tables": 4741,
      "population": 4742,
      "styles": 4743,
      "amounts": 4744,
      "habit": 4745,
      "Sci": 4746,
      "git": 4747,
      "shows": 4748,
      "British": 4749,
      "Pers": 4750,
      "essay": 4751,
      "veloc": 4752,
      "sheet": 4753,
      "paralle": 4754,
      "Apple": 4755,
      "[]": 4756,
      "release": 4757,
      "sect": 4758,
      "Our": 4759,
      "eper": 4760,
      "becomes": 4761,
      "growing": 4762,
      "pieces": 4763,
      "demand": 4764,
      "camera": 4765,
      "race": 4766,
      "reward": 4767,
      "motion": 4768,
      "obtain": 4769,
      "traffic": 4770,
      "errors": 4771,
      "JS": 4772,
      "god": 4773,
      "IGHT": 4774,
      "ait": 4775,
      "gree": 4776,
      "conduct": 4777,
      "Art": 4778,
      "Di": 4779,
      "extra": 4780,
      "unk": 4781,
      "circle": 4782,
      "remains": 4783,
      "born": 4784,
      "separate": 4785,
      "usage": 4786,
      "198": 4787,
      "commands": 4788,
      "Game": 4789,
      "cker": 4790,
      "milk": 4791,
      "luck": 4792,
      "enable": 4793,
      "covery": 4794,
      "plies": 4795,
      "dogs": 4796,
      "sugar": 4797,
      "customers": 4798,
      "took": 4799,
      "lost": 4800,
      "Ultimately": 4801,
      "retri": 4802,
      "meal": 4803,
      "blocks": 4804,
      "ET": 4805,
      "Ob": 4806,
      "PR": 4807,
      "girl": 4808,
      "lib": 4809,
      "allowed": 4810,
      "limitations": 4811,
      "Cli": 4812,
      "TV": 4813,
      "_name": 4814,
      "ues": 4815,
      "pepper": 4816,
      "OpenAI": 4817,
      "[\"": 4818,
      "tren": 4819,
      "berry": 4820,
      "metal": 4821,
      "mob": 4822,
      "die": 4823,
      "neurons": 4824,
      "philosophical": 4825,
      "ried": 4826,
      "vast": 4827,
      "ache": 4828,
      "decl": 4829,
      "units": 4830,
      "improving": 4831,
      "equip": 4832,
      "onto": 4833,
      "Mess": 4834,
      "Num": 4835,
      "layout": 4836,
      "resource": 4837,
      "aspects": 4838,
      "student": 4839,
      "butter": 4840,
      "forest": 4841,
      "currency": 4842,
      "decid": 4843,
      "geometry": 4844,
      "ican": 4845,
      "ada": 4846,
      "colle": 4847,
      "truth": 4848,
      "''": 4849,
      "uries": 4850,
      "Step": 4851,
      "repository": 4852,
      "went": 4853,
      "lean": 4854,
      "chol": 4855,
      "browser": 4856,
      "Next": 4857,
      "pand": 4858,
      "pul": 4859,
      "record": 4860,
      "itiz": 4861,
      "moon": 4862,
      "cultures": 4863,
      "capac": 4864,
      "contributions": 4865,
      "kilo": 4866,
      "ising": 4867,
      "cles": 4868,
      "German": 4869,
      "Day": 4870,
      "His": 4871,
      "slightly": 4872,
      "Hey": 4873,
      "settings": 4874,
      "probably": 4875,
      "knew": 4876,
      "triangle": 4877,
      "polit": 4878,
      "channel": 4879,
      "manner": 4880,
      "bottom": 4881,
      "correctly": 4882,
      "voc": 4883,
      "inforce": 4884,
      "socket": 4885,
      "utor": 4886,
      "doctor": 4887,
      "instal": 4888,
      "moral": 4889,
      "\");": 4890,
      "hat": 4891,
      "tes": 4892,
      "react": 4893,
      "urn": 4894,
      "answers": 4895,
      "paragraph": 4896,
      "probability": 4897,
      "completely": 4898,
      "Mer": 4899,
      "insul": 4900,
      "sold": 4901,
      "weights": 4902,
      "Opt": 4903,
      "plt": 4904,
      "intended": 4905,
      "engineering": 4906,
      "powers": 4907,
      "symptoms": 4908,
      "gent": 4909,
      "uary": 4910,
      "enh": 4911,
      "solved": 4912,
      "hood": 4913,
      "looks": 4914,
      "fa": 4915,
      "mi": 4916,
      "acade": 4917,
      "seek": 4918,
      "True": 4919,
      "schedule": 4920,
      "21": 4921,
      "Power": 4922,
      "seed": 4923,
      "brid": 4924,
      "Process": 4925,
      "giving": 4926,
      "static": 4927,
      "crucial": 4928,
      "itution": 4929,
      "});": 4930,
      "TP": 4931,
      "leave": 4932,
      "assume": 4933,
      "boot": 4934,
      "commer": 4935,
      "situations": 4936,
      "orus": 4937,
      "chord": 4938,
      "Empire": 4939,
      "tail": 4940,
      "classes": 4941,
      "broad": 4942,
      "Coun": 4943,
      "Tok": 4944,
      "bell": 4945,
      "fresh": 4946,
      "mption": 4947,
      "State": 4948,
      "challenge": 4949,
      "eventually": 4950,
      "released": 4951,
      "Both": 4952,
      "ceed": 4953,
      "office": 4954,
      "smooth": 4955,
      "beautiful": 4956,
      "ana": 4957,
      "modu": 4958,
      "phrase": 4959,
      "Ver": 4960,
      "surance": 4961,
      "Find": 4962,
      "dial": 4963,
      "brand": 4964,
      "hero": 4965,
      "opening": 4966,
      "syntax": 4967,
      "Certain": 4968,
      "atmosphere": 4969,
      "Up": 4970,
      "vegetables": 4971,
      "band": 4972,
      "wit": 4973,
      "priorit": 4974,
      "sav": 4975,
      "stage": 4976,
      "starts": 4977,
      "estimate": 4978,
      "Sha": 4979,
      "upload": 4980,
      "definition": 4981,
      "Bit": 4982,
      "UI": 4983,
      "rights": 4984,
      "ufact": 4985,
      "stories": 4986,
      "cyber": 4987,
      "cycle": 4988,
      "magnet": 4989,
      "dynamic": 4990,
      "analyze": 4991,
      "iron": 4992,
      "observ": 4993,
      "_id": 4994,
      "maximum": 4995,
      "equipment": 4996,
      "Test": 4997,
      "Change": 4998,
      "thoughts": 4999,
      "ES": 5000,
      "elines": 5001,
      "bias": 5002,
      "installed": 5003,
      "fat": 5004,
      "Example": 5005,
      "raise": 5006,
      "specify": 5007,
      "tempor": 5008,
      "template": 5009,
      "reliable": 5010,
      "roy": 5011,
      "feelings": 5012,
      "Feed": 5013,
      "gives": 5014,
      "mir": 5015,
      "communicate": 5016,
      "North": 5017,
      "Graph": 5018,
      "thus": 5019,
      "medic": 5020,
      "minimum": 5021,
      "Ab": 5022,
      "iny": 5023,
      "discuss": 5024,
      "season": 5025,
      "inspired": 5026,
      "inher": 5027,
      "unit": 5028,
      "lots": 5029,
      "poem": 5030,
      "ards": 5031,
      "Star": 5032,
      "beginning": 5033,
      "Te": 5034,
      "encrypt": 5035,
      "inten": 5036,
      "Christ": 5037,
      "supports": 5038,
      "px": 5039,
      "hello": 5040,
      "breaking": 5041,
      "unders": 5042,
      "Instead": 5043,
      "Med": 5044,
      "defe": 5045,
      "technique": 5046,
      "ball_": 5047,
      "Despite": 5048,
      "bowl": 5049,
      "mountain": 5050,
      "heavy": 5051,
      "module": 5052,
      "75": 5053,
      "Sat": 5054,
      "eve": 5055,
      "pros": 5056,
      "appreci": 5057,
      "workers": 5058,
      "classic": 5059,
      "visit": 5060,
      "receive": 5061,
      "ield": 5062,
      "unable": 5063,
      "died": 5064,
      "planning": 5065,
      "powered": 5066,
      "username": 5067,
      "Dra": 5068,
      "Span": 5069,
      "`,": 5070,
      "ource": 5071,
      "turning": 5072,
      "investment": 5073,
      "protein": 5074,
      "26": 5075,
      "].": 5076,
      "gard": 5077,
      "api": 5078,
      "received": 5079,
      "Mach": 5080,
      "UT": 5081,
      "anime": 5082,
      "except": 5083,
      "resist": 5084,
      "letters": 5085,
      "felt": 5086,
      "dough": 5087,
      "atom": 5088,
      "magical": 5089,
      "electricity": 5090,
      "itude": 5091,
      "waste": 5092,
      "**:": 5093,
      "hidden": 5094,
      "28": 5095,
      "During": 5096,
      "None": 5097,
      "adop": 5098,
      "get_": 5099,
      "relatively": 5100,
      "====": 5101,
      "summar": 5102,
      "Serv": 5103,
      "Every": 5104,
      "ye": 5105,
      "diverse": 5106,
      "ounds": 5107,
      "cribe": 5108,
      "writer": 5109,
      "Line": 5110,
      "aa": 5111,
      "tutor": 5112,
      "lie": 5113,
      "reader": 5114,
      "runs": 5115,
      "myth": 5116,
      "serious": 5117,
      "auce": 5118,
      "restaur": 5119,
      "representation": 5120,
      "ior": 5121,
      "vit": 5122,
      "conver": 5123,
      "poon": 5124,
      "jobs": 5125,
      "movies": 5126,
      "hour": 5127,
      "reactions": 5128,
      "chron": 5129,
      "manufact": 5130,
      "wave": 5131,
      "ascript": 5132,
      "keys": 5133,
      "avascript": 5134,
      "specified": 5135,
      "jump": 5136,
      "wear": 5137,
      "grid": 5138,
      "responsib": 5139,
      "binary": 5140,
      "nic": 5141,
      "purposes": 5142,
      "arguments": 5143,
      "='": 5144,
      "Run": 5145,
      "Calcul": 5146,
      "dot": 5147,
      "father": 5148,
      "orbit": 5149,
      "internal": 5150,
      "astructure": 5151,
      "ums": 5152,
      "domain": 5153,
      "Afr": 5154,
      "bread": 5155,
      "hit": 5156,
      "embed": 5157,
      "velocity": 5158,
      "communities": 5159,
      "LED": 5160,
      "guidance": 5161,
      "69": 5162,
      "AC": 5163,
      "cin": 5164,
      "underlying": 5165,
      "Code": 5166,
      "27": 5167,
      "functionality": 5168,
      "Pract": 5169,
      "favorite": 5170,
      "ience": 5171,
      "ford": 5172,
      "exam": 5173,
      "external": 5174,
      "poor": 5175,
      "credit": 5176,
      "regulations": 5177,
      "EU": 5178,
      "Sup": 5179,
      "yellow": 5180,
      "gram": 5181,
      "touch": 5182,
      "crete": 5183,
      "implications": 5184,
      "skin": 5185,
      "Sk": 5186,
      "insurance": 5187,
      "beat": 5188,
      "keting": 5189,
      "interpre": 5190,
      "causing": 5191,
      "parameter": 5192,
      "Certainly": 5193,
      "db": 5194,
      "Stud": 5195,
      "append": 5196,
      "fruit": 5197,
      "battle": 5198,
      "zy": 5199,
      "apple": 5200,
      "untu": 5201,
      "muscle": 5202,
      "France": 5203,
      "Spanish": 5204,
      "tu": 5205,
      "ails": 5206,
      "fficient": 5207,
      "bing": 5208,
      "tood": 5209,
      "iced": 5210,
      "icies": 5211,
      "stra": 5212,
      "iling": 5213,
      "canvas": 5214,
      "views": 5215,
      "learned": 5216,
      "studies": 5217,
      "____": 5218,
      "horiz": 5219,
      "Error": 5220,
      "35": 5221,
      "Have": 5222,
      "Well": 5223,
      "encounter": 5224,
      "bash": 5225,
      "ffe": 5226,
      "Before": 5227,
      "subjective": 5228,
      "cos": 5229,
      "parallel": 5230,
      "HE": 5231,
      "acter": 5232,
      "gebra": 5233,
      "rial": 5234,
      "standing": 5235,
      "parad": 5236,
      "closed": 5237,
      "Look": 5238,
      "international": 5239,
      "coordin": 5240,
      "vectors": 5241,
      "prov": 5242,
      "inder": 5243,
      "illa": 5244,
      "assistance": 5245,
      "spirit": 5246,
      "SE": 5247,
      "organizations": 5248,
      "uclear": 5249,
      "described": 5250,
      "####": 5251,
      "Dear": 5252,
      "experienced": 5253,
      "expression": 5254,
      "suring": 5255,
      "carry": 5256,
      "mentioned": 5257,
      "pict": 5258,
      "cean": 5259,
      "odies": 5260,
      "worked": 5261,
      "infrastructure": 5262,
      "Rep": 5263,
      "cooking": 5264,
      "democr": 5265,
      "ades": 5266,
      "moves": 5267,
      "lose": 5268,
      "liqu": 5269,
      "businesses": 5270,
      "discovered": 5271,
      "navigate": 5272,
      "Ed": 5273,
      "tone": 5274,
      "icon": 5275,
      "exists": 5276,
      "updates": 5277,
      "stick": 5278,
      "assign": 5279,
      "highest": 5280,
      "policies": 5281,
      "article": 5282,
      "Bar": 5283,
      "nodes": 5284,
      "disease": 5285,
      "guess": 5286,
      "ological": 5287,
      "stars": 5288,
      "engaging": 5289,
      "influenced": 5290,
      "cular": 5291,
      "gall": 5292,
      "edom": 5293,
      "lived": 5294,
      "biases": 5295,
      "patient": 5296,
      "employees": 5297,
      "Life": 5298,
      "Pot": 5299,
      "wild": 5300,
      "editing": 5301,
      "Union": 5302,
      "foods": 5303,
      "earthqu": 5304,
      "split": 5305,
      "argue": 5306,
      "chos": 5307,
      "stored": 5308,
      "emotional": 5309,
      "Lat": 5310,
      "];": 5311,
      "leaves": 5312,
      "React": 5313,
      "faces": 5314,
      "ports": 5315,
      "frequency": 5316,
      "queries": 5317,
      "aid": 5318,
      "deal": 5319,
      "artists": 5320,
      "deriv": 5321,
      "ival": 5322,
      "miles": 5323,
      "happiness": 5324,
      "tour": 5325,
      "icts": 5326,
      "rol": 5327,
      "vibr": 5328,
      "willing": 5329,
      "inputs": 5330,
      "genet": 5331,
      "weapons": 5332,
      "Sim": 5333,
      "fly": 5334,
      "rices": 5335,
      "domin": 5336,
      "tection": 5337,
      "themes": 5338,
      "joke": 5339,
      "01": 5340,
      "PM": 5341,
      "Tech": 5342,
      "wish": 5343,
      "oppos": 5344,
      "launch": 5345,
      "izza": 5346,
      "34": 5347,
      "Langu": 5348,
      "OP": 5349,
      "amb": 5350,
      "ideal": 5351,
      "Elect": 5352,
      "Rob": 5353,
      "hon": 5354,
      "scan": 5355,
      "cohol": 5356,
      "helped": 5357,
      "opportunity": 5358,
      "revolution": 5359,
      "isn": 5360,
      "formal": 5361,
      "indic": 5362,
      "counts": 5363,
      "personality": 5364,
      "told": 5365,
      "abstr": 5366,
      "ulty": 5367,
      "matrices": 5368,
      "distances": 5369,
      "limits": 5370,
      "appearance": 5371,
      "enemies": 5372,
      "SD": 5373,
      "tall": 5374,
      "interactions": 5375,
      "locations": 5376,
      "changed": 5377,
      "orders": 5378,
      "recommendations": 5379,
      "menu": 5380,
      "mobile": 5381,
      "Ho": 5382,
      "ga": 5383,
      "suffer": 5384,
      "particle": 5385,
      "profit": 5386,
      "mixture": 5387,
      "Research": 5388,
      "oven": 5389,
      "infl": 5390,
      "orient": 5391,
      "chance": 5392,
      "overcome": 5393,
      "goods": 5394,
      "passed": 5395,
      "fundamental": 5396,
      "bust": 5397,
      "ran": 5398,
      "spot": 5399,
      "criter": 5400,
      "morning": 5401,
      "alien": 5402,
      "arm": 5403,
      "convent": 5404,
      "bucket": 5405,
      "followed": 5406,
      "distinct": 5407,
      "input_": 5408,
      "improved": 5409,
      "harmful": 5410,
      "glasses": 5411,
      "vot": 5412,
      "cars": 5413,
      "celer": 5414,
      "attempt": 5415,
      "ago": 5416,
      "meat": 5417,
      "ygen": 5418,
      "erry": 5419,
      "conv": 5420,
      "fishing": 5421,
      "parent": 5422,
      "adventure": 5423,
      "Oh": 5424,
      "acc": 5425,
      "sharing": 5426,
      "Science": 5427,
      "akness": 5428,
      "java": 5429,
      "ato": 5430,
      "acqu": 5431,
      "forces": 5432,
      "developer": 5433,
      "protection": 5434,
      "contrast": 5435,
      "istry": 5436,
      "shor": 5437,
      "crit": 5438,
      "himself": 5439,
      "Mag": 5440,
      "nice": 5441,
      "fortun": 5442,
      "esty": 5443,
      "ague": 5444,
      "audio": 5445,
      "CPU": 5446,
      "sustainable": 5447,
      "Imag": 5448,
      "hop": 5449,
      "translate": 5450,
      "legs": 5451,
      "facing": 5452,
      "Doc": 5453,
      "Fl": 5454,
      "Hum": 5455,
      "sauce": 5456,
      "rier": 5457,
      "songs": 5458,
      "innovation": 5459,
      "fantasy": 5460,
      "kid": 5461,
      "compar": 5462,
      "pin": 5463,
      "algebra": 5464,
      "arily": 5465,
      "decre": 5466,
      "degree": 5467,
      "wealth": 5468,
      "comment": 5469,
      "shapes": 5470,
      "idity": 5471,
      "ference": 5472,
      "thank": 5473,
      "Uni": 5474,
      "biot": 5475,
      "accessible": 5476,
      "circum": 5477,
      "regarding": 5478,
      "Install": 5479,
      "500": 5480,
      "orge": 5481,
      "studying": 5482,
      "trees": 5483,
      "President": 5484,
      "inforcement": 5485,
      "PE": 5486,
      "bles": 5487,
      "restrict": 5488,
      "practical": 5489,
      "\";": 5490,
      "formation": 5491,
      "distr": 5492,
      "scientists": 5493,
      "dimensions": 5494,
      "decided": 5495,
      "sin": 5496,
      "yes": 5497,
      "icing": 5498,
      "Fra": 5499,
      "File": 5500,
      "Sal": 5501,
      "stability": 5502,
      "plication": 5503,
      "secret": 5504,
      "1000": 5505,
      "Lar": 5506,
      "aign": 5507,
      "quot": 5508,
      "Ang": 5509,
      "inty": 5510,
      "marily": 5511,
      "lighting": 5512,
      "Android": 5513,
      "meeting": 5514,
      "achieved": 5515,
      "}{": 5516,
      "cris": 5517,
      "logo": 5518,
      "ressive": 5519,
      "shell": 5520,
      "former": 5521,
      "():": 5522,
      "efficiently": 5523,
      "rolls": 5524,
      "experts": 5525,
      "Fire": 5526,
      "rang": 5527,
      "abs": 5528,
      "apter": 5529,
      "connections": 5530,
      "');": 5531,
      "nest": 5532,
      "alcohol": 5533,
      "lore": 5534,
      "formed": 5535,
      "Incre": 5536,
      "fox": 5537,
      "breath": 5538,
      "Language": 5539,
      "Gra": 5540,
      "NA": 5541,
      "Tor": 5542,
      "cab": 5543,
      "nuclear": 5544,
      "town": 5545,
      "aren": 5546,
      "proced": 5547,
      "amples": 5548,
      "correspon": 5549,
      "Enter": 5550,
      "particip": 5551,
      "Should": 5552,
      "treatment": 5553,
      "applied": 5554,
      "dol": 5555,
      "td": 5556,
      "woman": 5557,
      "iles": 5558,
      "warf": 5559,
      "sweet": 5560,
      "36": 5561,
      "RAM": 5562,
      "Turing": 5563,
      "dia": 5564,
      "decide": 5565,
      "OT": 5566,
      "income": 5567,
      "chest": 5568,
      "acks": 5569,
      "prepare": 5570,
      "Any": 5571,
      "driving": 5572,
      "fitting": 5573,
      "specialized": 5574,
      "diagno": 5575,
      "understood": 5576,
      "OM": 5577,
      "Sc": 5578,
      "density": 5579,
      "lon": 5580,
      "rig": 5581,
      "sell": 5582,
      "shared": 5583,
      "hypo": 5584,
      "America": 5585,
      "ying": 5586,
      "remind": 5587,
      "terrain": 5588,
      "aby": 5589,
      "absor": 5590,
      "exts": 5591,
      "apps": 5592,
      "img": 5593,
      "funny": 5594,
      "benefit": 5595,
      "columns": 5596,
      "freedom": 5597,
      "evaluate": 5598,
      "spr": 5599,
      "suited": 5600,
      "intenance": 5601,
      "Fun": 5602,
      "Mid": 5603,
      "Western": 5604,
      "hu": 5605,
      "olf": 5606,
      "brown": 5607,
      "campaign": 5608,
      "academic": 5609,
      "repair": 5610,
      "impossible": 5611,
      "pir": 5612,
      "sem": 5613,
      "haps": 5614,
      "ifications": 5615,
      "popularity": 5616,
      "gency": 5617,
      "career": 5618,
      "Most": 5619,
      "iff": 5620,
      "bug": 5621,
      "finally": 5622,
      "regions": 5623,
      "End": 5624,
      "printing": 5625,
      "continued": 5626,
      "gap": 5627,
      "encing": 5628,
      "eli": 5629,
      "conds": 5630,
      "cake": 5631,
      "overview": 5632,
      "deploy": 5633,
      "Conne": 5634,
      "tests": 5635,
      "gaming": 5636,
      "recognition": 5637,
      "immediately": 5638,
      "GB": 5639,
      "hic": 5640,
      "scr": 5641,
      "tication": 5642,
      "isol": 5643,
      "iring": 5644,
      "workout": 5645,
      "dreams": 5646,
      "capacity": 5647,
      "grand": 5648,
      "Cy": 5649,
      "bol": 5650,
      "orn": 5651,
      "fear": 5652,
      "painting": 5653,
      "iate": 5654,
      "absol": 5655,
      "comfort": 5656,
      "corner": 5657,
      "ishing": 5658,
      "packages": 5659,
      "BI": 5660,
      "IV": 5661,
      "More": 5662,
      "fro": 5663,
      "occurs": 5664,
      "People": 5665,
      "PH": 5666,
      "citiz": 5667,
      "ii": 5668,
      "desk": 5669,
      "manager": 5670,
      "fictional": 5671,
      "drag": 5672,
      "documentation": 5673,
      "Practice": 5674,
      "Asi": 5675,
      "jud": 5676,
      "recor": 5677,
      "rent": 5678,
      "floor": 5679,
      "birth": 5680,
      "fu": 5681,
      "gments": 5682,
      "alone": 5683,
      "stim": 5684,
      "vehic": 5685,
      "aches": 5686,
      "serving": 5687,
      "primarily": 5688,
      "Engine": 5689,
      "diction": 5690,
      "zon": 5691,
      "compute": 5692,
      "iers": 5693,
      "ening": 5694,
      "excell": 5695,
      "visible": 5696,
      "sex": 5697,
      "laugh": 5698,
      "acon": 5699,
      "degre": 5700,
      "unge": 5701,
      "spaces": 5702,
      "integer": 5703,
      "Harry": 5704,
      "Max": 5705,
      "billion": 5706,
      "abor": 5707,
      "exchange": 5708,
      "shift": 5709,
      "dish": 5710,
      "tried": 5711,
      "empty": 5712,
      "facts": 5713,
      "deliver": 5714,
      "generating": 5715,
      "produced": 5716,
      "puzz": 5717,
      "apolog": 5718,
      "independent": 5719,
      "aspberry": 5720,
      "Its": 5721,
      "metric": 5722,
      "rown": 5723,
      "presence": 5724,
      "simplif": 5725,
      ":,": 5726,
      "ws": 5727,
      "shown": 5728,
      "clude": 5729,
      "phase": 5730,
      "grade": 5731,
      "justice": 5732,
      "oxygen": 5733,
      "Russia": 5734,
      ";;": 5735,
      "clos": 5736,
      "chosen": 5737,
      "37": 5738,
      "prop": 5739,
      "nom": 5740,
      "cks": 5741,
      "seeking": 5742,
      "greatest": 5743,
      "missing": 5744,
      "simulation": 5745,
      "300": 5746,
      "enty": 5747,
      "roots": 5748,
      "automatically": 5749,
      "'},": 5750,
      "encourage": 5751,
      "margin": 5752,
      "imagine": 5753,
      "entertain": 5754,
      "plugin": 5755,
      "ED": 5756,
      "nia": 5757,
      "ensuring": 5758,
      "izer": 5759,
      "held": 5760,
      "considering": 5761,
      "telling": 5762,
      "titles": 5763,
      "phenomenon": 5764,
      "reve": 5765,
      "cred": 5766,
      "servers": 5767,
      "transition": 5768,
      "older": 5769,
      "demonstr": 5770,
      "Cent": 5771,
      "PO": 5772,
      "Sor": 5773,
      "uter": 5774,
      "vs": 5775,
      "acceler": 5776,
      "identity": 5777,
      "Cur": 5778,
      "Revolution": 5779,
      "Ub": 5780,
      "tk": 5781,
      "inspir": 5782,
      "arri": 5783,
      "tele": 5784,
      "realistic": 5785,
      "dru": 5786,
      "outputs": 5787,
      "wonder": 5788,
      "George": 5789,
      "birds": 5790,
      "pizza": 5791,
      "maintenance": 5792,
      "rays": 5793,
      "ameter": 5794,
      "matic": 5795,
      "().": 5796,
      "Alice": 5797,
      "optimization": 5798,
      "centralized": 5799,
      "Client": 5800,
      "prioritize": 5801,
      "assu": 5802,
      "tage": 5803,
      "copyright": 5804,
      "welcome": 5805,
      "%%": 5806,
      "Sum": 5807,
      "fans": 5808,
      "plans": 5809,
      "#,": 5810,
      "'.": 5811,
      "rates": 5812,
      "urch": 5813,
      "spend": 5814,
      "fiction": 5815,
      "constrain": 5816,
      "holders": 5817,
      "validation": 5818,
      "habits": 5819,
      "shadow": 5820,
      "degrees": 5821,
      "AW": 5822,
      "Jack": 5823,
      "backup": 5824,
      "breed": 5825,
      "approaches": 5826,
      "happened": 5827,
      "strengths": 5828,
      "exploring": 5829,
      "finger": 5830,
      "comprehensive": 5831,
      "JSON": 5832,
      "ugh": 5833,
      "ened": 5834,
      "arms": 5835,
      "thanks": 5836,
      "reduced": 5837,
      "Introdu": 5838,
      "scenario": 5839,
      "anx": 5840,
      "hash": 5841,
      "obj": 5842,
      "suggests": 5843,
      "truly": 5844,
      "destroy": 5845,
      "purchase": 5846,
      "7b": 5847,
      "Avoid": 5848,
      "Black": 5849,
      "Mus": 5850,
      "winter": 5851,
      "leaving": 5852,
      "entry": 5853,
      "submit": 5854,
      "leaders": 5855,
      "trading": 5856,
      "protocol": 5857,
      "wire": 5858,
      "inc": 5859,
      "stone": 5860,
      "becoming": 5861,
      "wants": 5862,
      "perspectives": 5863,
      "38": 5864,
      "mpy": 5865,
      "spending": 5866,
      "simpler": 5867,
      "pygame": 5868,
      "graphic": 5869,
      "foundation": 5870,
      "walking": 5871,
      "awareness": 5872,
      "fuel": 5873,
      "optimize": 5874,
      "religious": 5875,
      "inser": 5876,
      "outer": 5877,
      "conven": 5878,
      "url": 5879,
      "delicious": 5880,
      "Chorus": 5881,
      "Array": 5882,
      "wait": 5883,
      "months": 5884,
      "combined": 5885,
      "rapid": 5886,
      "Item": 5887,
      "AA": 5888,
      "cv": 5889,
      "plays": 5890,
      "transmit": 5891,
      "////": 5892,
      "objective": 5893,
      "2022": 5894,
      "recognize": 5895,
      "Bre": 5896,
      "Key": 5897,
      "Light": 5898,
      "Tra": 5899,
      "illi": 5900,
      "appears": 5901,
      "farm": 5902,
      "expertise": 5903,
      "LAI": 5904,
      "Pho": 5905,
      "deeper": 5906,
      "caffe": 5907,
      "backend": 5908,
      "statements": 5909,
      "Implement": 5910,
      "Ubuntu": 5911,
      "31": 5912,
      "39": 5913,
      "stic": 5914,
      "rop": 5915,
      "oppon": 5916,
      "signals": 5917,
      "drawing": 5918,
      "Austr": 5919,
      "Gre": 5920,
      "rh": 5921,
      "rt": 5922,
      "urt": 5923,
      "diam": 5924,
      "axis": 5925,
      "branches": 5926,
      "landscape": 5927,
      "Machine": 5928,
      "\"?": 5929,
      "nal": 5930,
      "thous": 5931,
      "peace": 5932,
      "outcomes": 5933,
      "therefore": 5934,
      "flavor": 5935,
      "Design": 5936,
      "introduction": 5937,
      "nutri": 5938,
      "issions": 5939,
      "consumption": 5940,
      "Gal": 5941,
      "eco": 5942,
      "icated": 5943,
      "movements": 5944,
      "improvement": 5945,
      "happens": 5946,
      "miss": 5947,
      "Based": 5948,
      "wiz": 5949,
      "eral": 5950,
      "attach": 5951,
      "equival": 5952,
      "researchers": 5953,
      "dimensional": 5954,
      "authentication": 5955,
      "(-": 5956,
      "DE": 5957,
      "Hand": 5958,
      "User": 5959,
      "ov": 5960,
      "alpha": 5961,
      "ERT": 5962,
      "ride": 5963,
      "struction": 5964,
      "Const": 5965,
      "constantly": 5966,
      "nd": 5967,
      "Their": 5968,
      "prise": 5969,
      "cert": 5970,
      "insights": 5971,
      "saying": 5972,
      "survive": 5973,
      "\"]": 5974,
      ")^": 5975,
      "Cop": 5976,
      "Com": 5977,
      "Tit": 5978,
      "ubl": 5979,
      "ancing": 5980,
      "enses": 5981,
      "Under": 5982,
      "carefully": 5983,
      "composition": 5984,
      "commercial": 5985,
      "Sm": 5986,
      "mill": 5987,
      "scar": 5988,
      "six": 5989,
      "comments": 5990,
      "incredi": 5991,
      "environments": 5992,
      "placing": 5993,
      "sensitive": 5994,
      "Ident": 5995,
      "68": 5996,
      "={": 5997,
      "Ben": 5998,
      "Sa": 5999,
      "segments": 6000,
      "ults": 6001,
      "scra": 6002,
      "careful": 6003,
      "flowers": 6004,
      "maintaining": 6005,
      "excellent": 6006,
      "42": 6007,
      "Back": 6008,
      "javascript": 6009,
      "thog": 6010,
      "arrow": 6011,
      "soil": 6012,
      "diffusion": 6013,
      "gging": 6014,
      "mathematic": 6015,
      "sister": 6016,
      "survival": 6017,
      "thogonal": 6018,
      "beef": 6019,
      "tron": 6020,
      "dio": 6021,
      "helping": 6022,
      "included": 6023,
      "afford": 6024,
      "())": 6025,
      "Ent": 6026,
      "distributed": 6027,
      "synthesis": 6028,
      "Regular": 6029,
      "estyle": 6030,
      "Mark": 6031,
      "national": 6032,
      "turned": 6033,
      "links": 6034,
      "Quant": 6035,
      "galax": 6036,
      "official": 6037,
      "Path": 6038,
      "stal": 6039,
      "cream": 6040,
      "meaningful": 6041,
      "Service": 6042,
      "Imagine": 6043,
      "ught": 6044,
      "Austral": 6045,
      "PS": 6046,
      "RP": 6047,
      "rust": 6048,
      "agent": 6049,
      "charge": 6050,
      "imagin": 6051,
      "confir": 6052,
      "http": 6053,
      "extrem": 6054,
      "Ca": 6055,
      "wife": 6056,
      "yo": 6057,
      "plastic": 6058,
      "weak": 6059,
      "ansion": 6060,
      "choices": 6061,
      "rooms": 6062,
      "Element": 6063,
      "native": 6064,
      "acing": 6065,
      "forts": 6066,
      "emissions": 6067,
      "merge": 6068,
      "balanced": 6069,
      "\":\"": 6070,
      "tok": 6071,
      "itate": 6072,
      "lebr": 6073,
      "ads": 6074,
      "celebr": 6075,
      "complish": 6076,
      "ensions": 6077,
      "managing": 6078,
      "aircraft": 6079,
      "wheels": 6080,
      "reviews": 6081,
      "frequently": 6082,
      "updated": 6083,
      "Base": 6084,
      "DB": 6085,
      "Fur": 6086,
      "raid": 6087,
      "antic": 6088,
      "marketing": 6089,
      "Mox": 6090,
      "remaining": 6091,
      "AG": 6092,
      "nels": 6093,
      "accomplish": 6094,
      "Input": 6095,
      "cules": 6096,
      "Class": 6097,
      "Train": 6098,
      "Yor": 6099,
      "sen": 6100,
      "almost": 6101,
      "amin": 6102,
      "characteristics": 6103,
      "blockchain": 6104,
      "modified": 6105,
      "criteria": 6106,
      "wings": 6107,
      "proport": 6108,
      "plenty": 6109,
      "sively": 6110,
      "strange": 6111,
      "Arch": 6112,
      "Like": 6113,
      "electrical": 6114,
      "km": 6115,
      "zone": 6116,
      "sud": 6117,
      "curl": 6118,
      "maybe": 6119,
      "flav": 6120,
      "genre": 6121,
      "bottle": 6122,
      "Describe": 6123,
      "introduced": 6124,
      "CSV": 6125,
      "};": 6126,
      "seconds": 6127,
      "pointer": 6128,
      "positions": 6129,
      "sentient": 6130,
      "accurately": 6131,
      "appreciate": 6132,
      "Last": 6133,
      "spo": 6134,
      "ams": 6135,
      "shar": 6136,
      "paid": 6137,
      "tune": 6138,
      "fixed": 6139,
      "Ret": 6140,
      "Sar": 6141,
      "tt": 6142,
      "owner": 6143,
      "typing": 6144,
      "cards": 6145,
      "rolling": 6146,
      "Diffusion": 6147,
      "Econ": 6148,
      "Raspberry": 6149,
      "editor": 6150,
      "USB": 6151,
      "contents": 6152,
      "Stable": 6153,
      "optimal": 6154,
      "cognitive": 6155,
      "scope": 6156,
      "sudden": 6157,
      "1_": 6158,
      "waves": 6159,
      "stac": 6160,
      "sufficient": 6161,
      "efforts": 6162,
      "producing": 6163,
      "supported": 6164,
      "straight": 6165,
      "Ter": 6166,
      "mise": 6167,
      "ops": 6168,
      "teas": 6169,
      "prints": 6170,
      "containing": 6171,
      "pretty": 6172,
      "chatbot": 6173,
      "magnetic": 6174,
      "pter": 6175,
      "pun": 6176,
      "sand": 6177,
      "park": 6178,
      "pursu": 6179,
      "brother": 6180,
      "broken": 6181,
      "garlic": 6182,
      "supplies": 6183,
      "aknesses": 6184,
      "3000": 6185,
      "IO": 6186,
      "din": 6187,
      "tension": 6188,
      "assess": 6189,
      "lifestyle": 6190,
      "behaviors": 6191,
      "teams": 6192,
      "sorted": 6193,
      "collaboration": 6194,
      "molecules": 6195,
      "Tur": 6196,
      "Vir": 6197,
      "bic": 6198,
      "ln": 6199,
      "nit": 6200,
      "ongoing": 6201,
      "fet": 6202,
      "pleas": 6203,
      "influential": 6204,
      "injury": 6205,
      "firm": 6206,
      "retrieve": 6207,
      "DO": 6208,
      "Will": 6209,
      "font": 6210,
      "concent": 6211,
      "unlikely": 6212,
      "intu": 6213,
      "desire": 6214,
      "matches": 6215,
      "vised": 6216,
      "remote": 6217,
      "Dist": 6218,
      "ords": 6219,
      "prices": 6220,
      "fulfill": 6221,
      "colon": 6222,
      "engines": 6223,
      "driven": 6224,
      "published": 6225,
      "drop": 6226,
      "Best": 6227,
      "Jan": 6228,
      "dys": 6229,
      "eks": 6230,
      "to_": 6231,
      "igation": 6232,
      "female": 6233,
      "leader": 6234,
      "Because": 6235,
      "2021": 6236,
      "route": 6237,
      "guidelines": 6238,
      "_points": 6239,
      "orous": 6240,
      "stret": 6241,
      "flag": 6242,
      "ginx": 6243,
      "standards": 6244,
      "derivative": 6245,
      "apologize": 6246,
      "trouble": 6247,
      "tainty": 6248,
      "ups": 6249,
      "bohydr": 6250,
      "portal": 6251,
      "numerous": 6252,
      "Bas": 6253,
      "ein": 6254,
      "las": 6255,
      "pap": 6256,
      "tore": 6257,
      "covers": 6258,
      "iger": 6259,
      "worry": 6260,
      "clone": 6261,
      "creativity": 6262,
      "google": 6263,
      "possess": 6264,
      "discrimin": 6265,
      "performing": 6266,
      "combat": 6267,
      "ashing": 6268,
      "offering": 6269,
      "mixed": 6270,
      "........": 6271,
      "dialog": 6272,
      "kit": 6273,
      "ocean": 6274,
      "reinforcement": 6275,
      "tox": 6276,
      "itely": 6277,
      "Through": 6278,
      "turns": 6279,
      "extremely": 6280,
      "67": 6281,
      "James": 6282,
      "pine": 6283,
      "pix": 6284,
      "aced": 6285,
      "cancer": 6286,
      "ultimately": 6287,
      "neut": 6288,
      "Sorry": 6289,
      "agg": 6290,
      "versat": 6291,
      "handling": 6292,
      "leads": 6293,
      "implementing": 6294,
      "radio": 6295,
      "accepted": 6296,
      "flexible": 6297,
      "horizon": 6298,
      "scratch": 6299,
      "400": 6300,
      "blog": 6301,
      "elabor": 6302,
      "concise": 6303,
      "igence": 6304,
      "upper": 6305,
      "eving": 6306,
      "crime": 6307,
      "listed": 6308,
      "\"\"\"": 6309,
      "Flu": 6310,
      "Mat": 6311,
      "cking": 6312,
      "pure": 6313,
      "tent": 6314,
      "deed": 6315,
      "passion": 6316,
      "summer": 6317,
      "documents": 6318,
      "polynom": 6319,
      "sizes": 6320,
      "equivalent": 6321,
      "Ju": 6322,
      "trip": 6323,
      "fasting": 6324,
      "LAION": 6325,
      "2000": 6326,
      "nis": 6327,
      "pace": 6328,
      "beans": 6329,
      "adds": 6330,
      "basis": 6331,
      "synthe": 6332,
      "Place": 6333,
      "abstract": 6334,
      "Rick": 6335,
      "eu": 6336,
      "arter": 6337,
      "edit": 6338,
      "cha": 6339,
      "whel": 6340,
      "shall": 6341,
      "posure": 6342,
      "divide": 6343,
      "couldn": 6344,
      "spin": 6345,
      "crack": 6346,
      "calculus": 6347,
      "sunlight": 6348,
      "plotlib": 6349,
      "competition": 6350,
      "Commun": 6351,
      "OF": 6352,
      "sad": 6353,
      "unning": 6354,
      "usive": 6355,
      "obby": 6356,
      "Ender": 6357,
      "poll": 6358,
      "digit": 6359,
      "evolved": 6360,
      "loops": 6361,
      "watching": 6362,
      "numpy": 6363,
      "opinions": 6364,
      "Face": 6365,
      "LI": 6366,
      "bind": 6367,
      "cand": 6368,
      "compass": 6369,
      "obstac": 6370,
      "integers": 6371,
      "periods": 6372,
      "Impro": 6373,
      "Select": 6374,
      "rare": 6375,
      "versions": 6376,
      "rupt": 6377,
      "trigger": 6378,
      "tutorials": 6379,
      "_file": 6380,
      "ission": 6381,
      "outcome": 6382,
      "afraid": 6383,
      "foreign": 6384,
      "personalized": 6385,
      "Discord": 6386,
      "completed": 6387,
      "Blue": 6388,
      "Okay": 6389,
      "fortunately": 6390,
      "Lim": 6391,
      "gave": 6392,
      "pages": 6393,
      "info": 6394,
      "bows": 6395,
      "attempts": 6396,
      "Sarah": 6397,
      "Es": 6398,
      "Source": 6399,
      "idents": 6400,
      "weigh": 6401,
      "noting": 6402,
      "technological": 6403,
      "controlled": 6404,
      "focuses": 6405,
      "temperatures": 6406,
      "parents": 6407,
      "Maybe": 6408,
      "constraints": 6409,
      "48": 6410,
      "insect": 6411,
      "enco": 6412,
      "mph": 6413,
      "--------------------------------": 6414,
      "Generate": 6415,
      "vacu": 6416,
      "opposite": 6417,
      "caffeine": 6418,
      "xt": 6419,
      "ays": 6420,
      "club": 6421,
      "says": 6422,
      "Node": 6423,
      "falling": 6424,
      "surrounding": 6425,
      "Main": 6426,
      "TO": 6427,
      "onion": 6428,
      "reput": 6429,
      "chop": 6430,
      "interactive": 6431,
      "overwhel": 6432,
      "finds": 6433,
      "stores": 6434,
      "covered": 6435,
      "debate": 6436,
      "Cali": 6437,
      "Mac": 6438,
      "Press": 6439,
      "fas": 6440,
      "kitch": 6441,
      "icial": 6442,
      "scatter": 6443,
      "hyper": 6444,
      "principle": 6445,
      "rhyth": 6446,
      "Further": 6447,
      "York": 6448,
      "atoes": 6449,
      "advert": 6450,
      "Init": 6451,
      "boost": 6452,
      "betes": 6453,
      "Canada": 6454,
      "execute": 6455,
      "articles": 6456,
      "massive": 6457,
      "Message": 6458,
      "mouth": 6459,
      "iso": 6460,
      "prep": 6461,
      "mechanism": 6462,
      "Plan": 6463,
      "resistance": 6464,
      "_mat": 6465,
      "_size": 6466,
      "rice": 6467,
      "docker": 6468,
      "ourses": 6469,
      "integration": 6470,
      "Output": 6471,
      "South": 6472,
      "assets": 6473,
      "concrete": 6474,
      "indicate": 6475,
      "closer": 6476,
      "Gold": 6477,
      "psychology": 6478,
      "Network": 6479,
      "Bitcoin": 6480,
      "temporary": 6481,
      "shorter": 6482,
      "PHP": 6483,
      "Link": 6484,
      "Ve": 6485,
      "snow": 6486,
      "resolve": 6487,
      "Inte": 6488,
      "precise": 6489,
      "diseas": 6490,
      "spent": 6491,
      "spell": 6492,
      "register": 6493,
      "organized": 6494,
      "gradually": 6495,
      "innovative": 6496,
      "switches": 6497,
      "torch": 6498,
      "Chapter": 6499,
      "stuff": 6500,
      "contrad": 6501,
      "sym": 6502,
      "frac": 6503,
      "equations": 6504,
      "sentences": 6505,
      "referred": 6506,
      "Click": 6507,
      "biological": 6508,
      "opinion": 6509,
      "600": 6510,
      "eleg": 6511,
      "mask": 6512,
      "ithub": 6513,
      "mostly": 6514,
      "\",\"": 6515,
      "greatly": 6516,
      "###": 6517,
      "LLM": 6518,
      "dynamics": 6519,
      "Bat": 6520,
      "Cap": 6521,
      "Date": 6522,
      "San": 6523,
      "VR": 6524,
      "_data": 6525,
      "ios": 6526,
      "detection": 6527,
      "perce": 6528,
      "wouldn": 6529,
      "depart": 6530,
      "await": 6531,
      "dependent": 6532,
      "operator": 6533,
      "profession": 6534,
      "Orthogonal": 6535,
      "explanations": 6536,
      "Pop": 6537,
      "Ru": 6538,
      "Simp": 6539,
      "fab": 6540,
      "agers": 6541,
      "timate": 6542,
      "fiber": 6543,
      "entials": 6544,
      "protected": 6545,
      "Play": 6546,
      "escape": 6547,
      "consists": 6548,
      "relative": 6549,
      "invo": 6550,
      "Options": 6551,
      "absolute": 6552,
      "Kore": 6553,
      "Wal": 6554,
      "therap": 6555,
      "amed": 6556,
      "centuries": 6557,
      "usual": 6558,
      "Color": 6559,
      "Alex": 6560,
      "cities": 6561,
      "pse": 6562,
      "sight": 6563,
      "tight": 6564,
      "replaced": 6565,
      "China": 6566,
      "recently": 6567,
      "bullet": 6568,
      "corresponding": 6569,
      "gun": 6570,
      "pti": 6571,
      "myster": 6572,
      "dedicated": 6573,
      "breaks": 6574,
      "gallon": 6575,
      "Dark": 6576,
      "compatible": 6577,
      "Quantum": 6578,
      "elaborate": 6579,
      "ahead": 6580,
      "cats": 6581,
      "arant": 6582,
      "stir": 6583,
      "elif": 6584,
      "prove": 6585,
      "umin": 6586,
      "preser": 6587,
      "cision": 6588,
      "sends": 6589,
      "nucle": 6590,
      "Building": 6591,
      "crisis": 6592,
      "bohydrates": 6593,
      "Event": 6594,
      "Sof": 6595,
      "fits": 6596,
      "lets": 6597,
      "kingdom": 6598,
      "calm": 6599,
      "typical": 6600,
      "confident": 6601,
      "implemented": 6602,
      "license": 6603,
      "stronger": 6604,
      "minimal": 6605,
      "laptop": 6606,
      "exciting": 6607,
      "industrial": 6608,
      "enhance": 6609,
      "City": 6610,
      "mechanical": 6611,
      "literature": 6612,
      "Ama": 6613,
      "National": 6614,
      "batch": 6615,
      "women": 6616,
      "proven": 6617,
      "peare": 6618,
      "modeling": 6619,
      "ulture": 6620,
      "enemy": 6621,
      "trends": 6622,
      "kitchen": 6623,
      "2D": 6624,
      "BA": 6625,
      "Bel": 6626,
      "throw": 6627,
      "elim": 6628,
      "verify": 6629,
      "cripts": 6630,
      "necessarily": 6631,
      "predictions": 6632,
      "Learn": 6633,
      "Prime": 6634,
      "ratio": 6635,
      "thin": 6636,
      "impacts": 6637,
      "Intell": 6638,
      "owned": 6639,
      "calend": 6640,
      "tomato": 6641,
      "previously": 6642,
      "grammar": 6643,
      "categor": 6644,
      "garden": 6645,
      "Sur": 6646,
      "iety": 6647,
      "zen": 6648,
      "jecture": 6649,
      "sett": 6650,
      "performed": 6651,
      "Although": 6652,
      "infinite": 6653,
      "Eas": 6654,
      "uation": 6655,
      "acid": 6656,
      "chapter": 6657,
      "illet": 6658,
      "mood": 6659,
      "motivated": 6660,
      "authentic": 6661,
      "electronic": 6662,
      "sql": 6663,
      "divided": 6664,
      "tokens": 6665,
      "courses": 6666,
      "meter": 6667,
      "vey": 6668,
      "interval": 6669,
      "omes": 6670,
      "combine": 6671,
      "beauty": 6672,
      "increasingly": 6673,
      "zed": 6674,
      "codes": 6675,
      "neuro": 6676,
      "fection": 6677,
      "bub": 6678,
      "basics": 6679,
      "keeping": 6680,
      "characterized": 6681,
      "????": 6682,
      "theoretical": 6683,
      "iveness": 6684,
      "college": 6685,
      "Verse": 6686,
      "liquid": 6687,
      "($": 6688,
      "Even": 6689,
      "Hy": 6690,
      "txt": 6691,
      "rewrite": 6692,
      "ications": 6693,
      "exposure": 6694,
      "guarant": 6695,
      "destination": 6696,
      "interpretation": 6697,
      "Number": 6698,
      "TX": 6699,
      "Top": 6700,
      "ptic": 6701,
      "harmon": 6702,
      "thorough": 6703,
      "banking": 6704,
      "entirely": 6705,
      "failure": 6706,
      "summarize": 6707,
      "kids": 6708,
      "▒▒": 6709,
      "resolution": 6710,
      "ulated": 6711,
      "curves": 6712,
      "meditation": 6713,
      "continuous": 6714,
      "ublic": 6715,
      "Age": 6716,
      "inch": 6717,
      "coins": 6718,
      "excess": 6719,
      "whose": 6720,
      "hydro": 6721,
      "immune": 6722,
      "Iron": 6723,
      "h1": 6724,
      "hous": 6725,
      "nes": 6726,
      "pal": 6727,
      "ano": 6728,
      "iving": 6729,
      "harder": 6730,
      "beginner": 6731,
      "FF": 6732,
      "F_": 6733,
      "Given": 6734,
      "_x": 6735,
      "css": 6736,
      "astron": 6737,
      "mold": 6738,
      "eves": 6739,
      "osing": 6740,
      "although": 6741,
      "alternatives": 6742,
      "fighting": 6743,
      "paradox": 6744,
      "66": 6745,
      "Jane": 6746,
      "Op": 6747,
      "bodies": 6748,
      "brought": 6749,
      "squared": 6750,
      "beneficial": 6751,
      "threads": 6752,
      "medicine": 6753,
      "74": 6754,
      "bage": 6755,
      "baking": 6756,
      "san": 6757,
      "sche": 6758,
      "incorrect": 6759,
      "renew": 6760,
      "compil": 6761,
      "discovery": 6762,
      "Unity": 6763,
      "wides": 6764,
      "removing": 6765,
      "picture": 6766,
      "diabetes": 6767,
      "wizard": 6768,
      "diseases": 6769,
      "Amazon": 6770,
      "E_": 6771,
      "cine": 6772,
      "complic": 6773,
      "spells": 6774,
      "significantly": 6775,
      "Work": 6776,
      "statistics": 6777,
      "████": 6778,
      "incorporate": 6779,
      "Lord": 6780,
      "Map": 6781,
      "Word": 6782,
      "ona": 6783,
      "territ": 6784,
      "phones": 6785,
      "kespeare": 6786,
      "mitigate": 6787,
      "defines": 6788,
      "engineer": 6789,
      "dimension": 6790,
      "MA": 6791,
      "fli": 6792,
      "gone": 6793,
      "resistant": 6794,
      "uster": 6795,
      "speeds": 6796,
      "begins": 6797,
      "azi": 6798,
      "Lua": 6799,
      "polynomial": 6800,
      "Intelligence": 6801,
      "Hist": 6802,
      "PAD": 6803,
      "ament": 6804,
      "dance": 6805,
      "sac": 6806,
      "rots": 6807,
      "explic": 6808,
      "planets": 6809,
      "prepared": 6810,
      "Cor": 6811,
      "_y": 6812,
      "echo": 6813,
      "rely": 6814,
      "cosmo": 6815,
      "promis": 6816,
      "minist": 6817,
      "2020": 6818,
      "cyl": 6819,
      "memor": 6820,
      "antibiot": 6821,
      "Off": 6822,
      "Que": 6823,
      "S3": 6824,
      "rome": 6825,
      "construction": 6826,
      "describes": 6827,
      "minimize": 6828,
      "Model": 6829,
      "manipulate": 6830,
      "translation": 6831,
      "industries": 6832,
      "Connect": 6833,
      "85": 6834,
      "SL": 6835,
      "Squ": 6836,
      "nation": 6837,
      "tab": 6838,
      "ument": 6839,
      "wis": 6840,
      "roles": 6841,
      "doors": 6842,
      "extend": 6843,
      "berries": 6844,
      "knowing": 6845,
      "Address": 6846,
      "kernel": 6847,
      "delivery": 6848,
      "soul": 6849,
      "extreme": 6850,
      "genetic": 6851,
      "Del": 6852,
      "Render": 6853,
      "inese": 6854,
      "recur": 6855,
      "reaction": 6856,
      "bear": 6857,
      "emit": 6858,
      "asets": 6859,
      "searching": 6860,
      "controver": 6861,
      "contributed": 6862,
      "reasoning": 6863,
      "regardless": 6864,
      "cooked": 6865,
      "clarify": 6866,
      "Focus": 6867,
      "pandas": 6868,
      "circumst": 6869,
      "29": 6870,
      "Twit": 6871,
      "crow": 6872,
      "ico": 6873,
      "ulations": 6874,
      "boss": 6875,
      "Altern": 6876,
      "computational": 6877,
      "referring": 6878,
      "digest": 6879,
      "reached": 6880,
      "cups": 6881,
      "Internet": 6882,
      "Introduction": 6883,
      "anxiety": 6884,
      "Twitter": 6885,
      "Mem": 6886,
      "liber": 6887,
      "observed": 6888,
      "loyal": 6889,
      "HTTP": 6890,
      "ethics": 6891,
      "affected": 6892,
      "pipe": 6893,
      "Japanese": 6894,
      "sqrt": 6895,
      "Identify": 6896,
      "avi": 6897,
      "mone": 6898,
      "tics": 6899,
      "attr": 6900,
      "rote": 6901,
      "robust": 6902,
      "weeks": 6903,
      "ella": 6904,
      "texture": 6905,
      "objectives": 6906,
      "realized": 6907,
      "holds": 6908,
      "possibilities": 6909,
      "sharp": 6910,
      "Am": 6911,
      "Fast": 6912,
      "aer": 6913,
      "mur": 6914,
      "pad": 6915,
      "wrote": 6916,
      "theme": 6917,
      "plate": 6918,
      "generates": 6919,
      "persist": 6920,
      "reaching": 6921,
      "structured": 6922,
      "traveling": 6923,
      "introduce": 6924,
      "theorem": 6925,
      "struggle": 6926,
      "vulnerabilities": 6927,
      "crops": 6928,
      "LP": 6929,
      "ients": 6930,
      "tact": 6931,
      "sudo": 6932,
      "artist": 6933,
      "Intern": 6934,
      "setup": 6935,
      "Button": 6936,
      "University": 6937,
      "teaspoon": 6938,
      "vacuum": 6939,
      "lad": 6940,
      "rating": 6941,
      "selection": 6942,
      "decor": 6943,
      "Ingre": 6944,
      "aws": 6945,
      "consideration": 6946,
      "tracking": 6947,
      "widespread": 6948,
      "HD": 6949,
      "Show": 6950,
      "ramid": 6951,
      "neigh": 6952,
      "datasets": 6953,
      "comed": 6954,
      "president": 6955,
      "lightweight": 6956,
      "classification": 6957,
      "displays": 6958,
      "jug": 6959,
      "listening": 6960,
      "ownership": 6961,
      "explicit": 6962,
      "03": 6963,
      "Part": 6964,
      "gory": 6965,
      "treas": 6966,
      "edges": 6967,
      "raised": 6968,
      "neck": 6969,
      "creature": 6970,
      "Form": 6971,
      "trial": 6972,
      "successfully": 6973,
      "255": 6974,
      "Bus": 6975,
      "Rome": 6976,
      "Sir": 6977,
      "Spain": 6978,
      "cache": 6979,
      "itutions": 6980,
      "meets": 6981,
      "fornia": 6982,
      "vegan": 6983,
      "earli": 6984,
      "mainly": 6985,
      "informed": 6986,
      "signs": 6987,
      "cuis": 6988,
      "holding": 6989,
      "investors": 6990,
      "focusing": 6991,
      "Kingdom": 6992,
      "';": 6993,
      "ION": 6994,
      "KE": 6995,
      "LC": 6996,
      "banks": 6997,
      "velength": 6998,
      "angles": 6999,
      "boy": 7000,
      "ressed": 7001,
      "controls": 7002,
      "ships": 7003,
      "significance": 7004,
      "oxide": 7005,
      "ASC": 7006,
      "Visual": 7007,
      "decline": 7008,
      "defeat": 7009,
      "Calculate": 7010,
      "comparison": 7011,
      "RPG": 7012,
      "California": 7013,
      "Em": 7014,
      "Two": 7015,
      "bacter": 7016,
      "hex": 7017,
      "})": 7018,
      "chords": 7019,
      "wash": 7020,
      "produces": 7021,
      "everyday": 7022,
      "Value": 7023,
      "Person": 7024,
      "oriented": 7025,
      "opponent": 7026,
      "Initial": 7027,
      "Mad": 7028,
      "rum": 7029,
      "uate": 7030,
      "orm": 7031,
      "intelligent": 7032,
      "woodchuck": 7033,
      "mirror": 7034,
      "hypothe": 7035,
      "<<": 7036,
      "Ber": 7037,
      "Mor": 7038,
      "cill": 7039,
      "kra": 7040,
      "infect": 7041,
      "geo": 7042,
      "feels": 7043,
      "represented": 7044,
      "tuning": 7045,
      "Mex": 7046,
      "kel": 7047,
      "pm": 7048,
      "replic": 7049,
      "forget": 7050,
      "notice": 7051,
      "indu": 7052,
      "markets": 7053,
      "Pros": 7054,
      "calculated": 7055,
      "cutting": 7056,
      "difficulty": 7057,
      "cardio": 7058,
      "frameworks": 7059,
      "gained": 7060,
      "pasta": 7061,
      "controller": 7062,
      "shoot": 7063,
      "restaurant": 7064,
      "Frame": 7065,
      "Did": 7066,
      "dict": 7067,
      "thick": 7068,
      "arly": 7069,
      "illegal": 7070,
      "carrots": 7071,
      "Algorith": 7072,
      "severe": 7073,
      "fluid": 7074,
      "cleaning": 7075,
      "Britain": 7076,
      "provider": 7077,
      "False": 7078,
      "none": 7079,
      "pd": 7080,
      "wing": 7081,
      "Exp": 7082,
      "electro": 7083,
      "tunnel": 7084,
      "descriptions": 7085,
      ">=": 7086,
      "Post": 7087,
      "SP": 7088,
      "lor": 7089,
      "itarian": 7090,
      "USA": 7091,
      "ulating": 7092,
      "****": 7093,
      "checking": 7094,
      "Prof": 7095,
      "possibility": 7096,
      "ini": 7097,
      "metr": 7098,
      "ultimate": 7099,
      "tember": 7100,
      "compile": 7101,
      "clic": 7102,
      "despite": 7103,
      "guy": 7104,
      "Experi": 7105,
      "output_": 7106,
      "Load": 7107,
      "Copy": 7108,
      "([": 7109,
      "padding": 7110,
      "encoura": 7111,
      "Invest": 7112,
      "labels": 7113,
      "damag": 7114,
      "progression": 7115,
      "streaming": 7116,
      "spher": 7117,
      "powder": 7118,
      "flexibility": 7119,
      "threats": 7120,
      "earthquake": 7121,
      "Large": 7122,
      "elihood": 7123,
      "Software": 7124,
      "Pan": 7125,
      "Sch": 7126,
      "tong": 7127,
      "yog": 7128,
      "ensus": 7129,
      "propos": 7130,
      "collap": 7131,
      "relativity": 7132,
      "channels": 7133,
      "excited": 7134,
      "Super": 7135,
      "GraphQL": 7136,
      "interpreted": 7137,
      "CH": 7138,
      "Du": 7139,
      "x_": 7140,
      "ya": 7141,
      "loved": 7142,
      "qui": 7143,
      "agric": 7144,
      "udd": 7145,
      "Church": 7146,
      "warri": 7147,
      "references": 7148,
      "windows": 7149,
      "factorial": 7150,
      "────────": 7151,
      "civilization": 7152,
      "Document": 7153,
      "obstacles": 7154,
      "79": 7155,
      "Mc": 7156,
      "Pack": 7157,
      "Sin": 7158,
      "pig": 7159,
      "attract": 7160,
      "itute": 7161,
      "ado": 7162,
      "unknown": 7163,
      "pher": 7164,
      "derived": 7165,
      "mechanisms": 7166,
      "philosopher": 7167,
      "figures": 7168,
      "JJJJ": 7169,
      "atoms": 7170,
      "spiritual": 7171,
      "ASCII": 7172,
      "({": 7173,
      "GD": 7174,
      "March": 7175,
      "Ref": 7176,
      "odo": 7177,
      "pull": 7178,
      "lements": 7179,
      "interaction": 7180,
      "empire": 7181,
      "availability": 7182,
      "optimized": 7183,
      "minute": 7184,
      "ruption": 7185,
      "wavelength": 7186,
      "commitment": 7187,
      "fruits": 7188,
      "Study": 7189,
      "MS": 7190,
      "tensor": 7191,
      "bruary": 7192,
      "tells": 7193,
      "likelihood": 7194,
      "tomatoes": 7195,
      "ATE": 7196,
      "shopping": 7197,
      "emphasizes": 7198,
      "repeat": 7199,
      "repeated": 7200,
      "011": 7201,
      "Whe": 7202,
      "ki": 7203,
      "lang": 7204,
      "sli": 7205,
      "schol": 7206,
      "unexpected": 7207,
      "abul": 7208,
      "thern": 7209,
      "Stay": 7210,
      "Chinese": 7211,
      "investing": 7212,
      "Pipe": 7213,
      "football": 7214,
      "Shakespeare": 7215,
      "closely": 7216,
      "Facebook": 7217,
      "Sam": 7218,
      "extr": 7219,
      "ighter": 7220,
      "drinking": 7221,
      "morality": 7222,
      "Moon": 7223,
      "Computer": 7224,
      "February": 7225,
      "conflicts": 7226,
      "walls": 7227,
      "slowly": 7228,
      "transportation": 7229,
      "category": 7230,
      "economics": 7231,
      "complicated": 7232,
      "VM": 7233,
      "jan": 7234,
      "rational": 7235,
      "reverse": 7236,
      "acle": 7237,
      "cop": 7238,
      "angers": 7239,
      "representing": 7240,
      "Second": 7241,
      "Artificial": 7242,
      "murder": 7243,
      "cuisine": 7244,
      "FT": 7245,
      "segment": 7246,
      "cooperation": 7247,
      "sures": 7248,
      "dates": 7249,
      "195": 7250,
      "shaped": 7251,
      "clearly": 7252,
      "trusted": 7253,
      "satisf": 7254,
      "Function": 7255,
      "circumstances": 7256,
      "88": 7257,
      "Cel": 7258,
      "seven": 7259,
      "idate": 7260,
      "otherwise": 7261,
      "spark": 7262,
      "sports": 7263,
      "designs": 7264,
      "session": 7265,
      "automated": 7266,
      "async": 7267,
      "politics": 7268,
      "44": 7269,
      "Bra": 7270,
      "FA": 7271,
      "Mall": 7272,
      "atomic": 7273,
      "arrange": 7274,
      "looked": 7275,
      "connecting": 7276,
      "databases": 7277,
      "observations": 7278,
      "suffering": 7279,
      "Human": 7280,
      "Furthermore": 7281,
      "fabric": 7282,
      "fn": 7283,
      "vin": 7284,
      "arrays": 7285,
      "maps": 7286,
      "istical": 7287,
      "ghost": 7288,
      "colate": 7289,
      "brush": 7290,
      "stands": 7291,
      "parties": 7292,
      "crust": 7293,
      "mittent": 7294,
      "iano": 7295,
      "Sometimes": 7296,
      "definitely": 7297,
      "installation": 7298,
      "Security": 7299,
      "Auto": 7300,
      "melon": 7301,
      "claims": 7302,
      "incorporating": 7303,
      "records": 7304,
      "nutrients": 7305,
      "Ingredients": 7306,
      "2_": 7307,
      "Epic": 7308,
      "cution": 7309,
      "fle": 7310,
      "fed": 7311,
      "gri": 7312,
      "rac": 7313,
      "reet": 7314,
      "moved": 7315,
      "iden": 7316,
      "consensus": 7317,
      "augment": 7318,
      "pawn": 7319,
      "Replace": 7320,
      "norm": 7321,
      "panel": 7322,
      "emergency": 7323,
      "neutral": 7324,
      "chopped": 7325,
      "Tod": 7326,
      "eties": 7327,
      "incent": 7328,
      "ancy": 7329,
      "institutions": 7330,
      "lingu": 7331,
      "configure": 7332,
      "strategic": 7333,
      "MMMMMMMM": 7334,
      "calendar": 7335,
      "Civ": 7336,
      "uss": 7337,
      "excl": 7338,
      "weaknesses": 7339,
      "pool": 7340,
      "Stream": 7341,
      "Exception": 7342,
      "intuitive": 7343,
      "mysterious": 7344,
      "PAD_": 7345,
      "/>": 7346,
      "Pen": 7347,
      "YPE": 7348,
      "hib": 7349,
      "kick": 7350,
      "ssh": 7351,
      "eness": 7352,
      "auth": 7353,
      "buildings": 7354,
      "regards": 7355,
      "adapted": 7356,
      "manufactur": 7357,
      "credentials": 7358,
      "Business": 7359,
      "2d": 7360,
      "Block": 7361,
      "Know": 7362,
      "Pos": 7363,
      "Scal": 7364,
      "sid": 7365,
      "wine": 7366,
      "wik": 7367,
      "oup": 7368,
      "ros": 7369,
      "elo": 7370,
      "contract": 7371,
      "aph": 7372,
      "anywhere": 7373,
      "20th": 7374,
      "harvest": 7375,
      "orem": 7376,
      "buying": 7377,
      "mesh": 7378,
      "mistakes": 7379,
      "criminal": 7380,
      "Object": 7381,
      "professionals": 7382,
      "Mort": 7383,
      "ky": 7384,
      "unc": 7385,
      "transactions": 7386,
      "Programm": 7387,
      "Deep": 7388,
      "involving": 7389,
      "showing": 7390,
      "Move": 7391,
      "couple": 7392,
      "determining": 7393,
      "rotation": 7394,
      "Hub": 7395,
      "bly": 7396,
      "baby": 7397,
      "dinner": 7398,
      "rocket": 7399,
      "thermo": 7400,
      "perhaps": 7401,
      "heating": 7402,
      "oscill": 7403,
      "INT": 7404,
      "steel": 7405,
      "chemistry": 7406,
      "dynamically": 7407,
      "gravit": 7408,
      "holid": 7409,
      ")?": 7410,
      "BSD": 7411,
      "Sep": 7412,
      "github": 7413,
      "nails": 7414,
      "itors": 7415,
      "ram": 7416,
      "ods": 7417,
      "intersection": 7418,
      "serves": 7419,
      "180": 7420,
      "Monday": 7421,
      "Update": 7422,
      "encryption": 7423,
      "insert": 7424,
      "onions": 7425,
      "ora": 7426,
      "entity": 7427,
      "haust": 7428,
      "appoint": 7429,
      "trick": 7430,
      "finance": 7431,
      "backs": 7432,
      "experiencing": 7433,
      "organic": 7434,
      "shortest": 7435,
      "vertical": 7436,
      "metic": 7437,
      "simulate": 7438,
      "Tokyo": 7439,
      "dollar": 7440,
      "AWS": 7441,
      "63": 7442,
      "DNA": 7443,
      "UN": 7444,
      "kg": 7445,
      "tons": 7446,
      "asts": 7447,
      "invas": 7448,
      "keywords": 7449,
      "potatoes": 7450,
      "digits": 7451,
      "Newton": 7452,
      "hunting": 7453,
      "affordable": 7454,
      "Korea": 7455,
      "abulary": 7456,
      "DA": 7457,
      "Rich": 7458,
      "mg": 7459,
      "SSD": 7460,
      "whereas": 7461,
      "lists": 7462,
      "planes": 7463,
      "suggested": 7464,
      "calls": 7465,
      "((((": 7466,
      "executed": 7467,
      "inspiration": 7468,
      "elimin": 7469,
      "89": 7470,
      "Free": 7471,
      "Gen": 7472,
      "Hung": 7473,
      "YO": 7474,
      "cable": 7475,
      "dar": 7476,
      "gift": 7477,
      "thr": 7478,
      "estamp": 7479,
      "division": 7480,
      "jection": 7481,
      "parse": 7482,
      "operate": 7483,
      "sumes": 7484,
      "dedication": 7485,
      "formatting": 7486,
      "mutual": 7487,
      "integrated": 7488,
      "selected": 7489,
      "melody": 7490,
      "~~~~~~~~": 7491,
      "electrons": 7492,
      "instrument": 7493,
      "African": 7494,
      "citizens": 7495,
      "utility": 7496,
      "forever": 7497,
      "Remove": 7498,
      "clients": 7499,
      "coverage": 7500,
      "vegetable": 7501,
      "mistake": 7502,
      "attributes": 7503,
      "Simil": 7504,
      "confirm": 7505,
      "Air": 7506,
      "Cut": 7507,
      "House": 7508,
      "ür": 7509,
      "island": 7510,
      "ingu": 7511,
      "foo": 7512,
      "Ans": 7513,
      "finish": 7514,
      "computation": 7515,
      "snap": 7516,
      "casting": 7517,
      "Dev": 7518,
      "Lab": 7519,
      "hack": 7520,
      "endless": 7521,
      "Include": 7522,
      "Analy": 7523,
      "driver": 7524,
      "scientist": 7525,
      "linked": 7526,
      "advancements": 7527,
      "desktop": 7528,
      "Today": 7529,
      "gravitational": 7530,
      "76": 7531,
      "DC": 7532,
      "Ren": 7533,
      "ining": 7534,
      "oral": 7535,
      "proxim": 7536,
      "tial": 7537,
      "imper": 7538,
      "nose": 7539,
      "interview": 7540,
      "dishes": 7541,
      "checks": 7542,
      "Nether": 7543,
      "destru": 7544,
      "mount": 7545,
      "adventures": 7546,
      "monitoring": 7547,
      "CO2": 7548,
      "scenarios": 7549,
      "Dragon": 7550,
      "Potter": 7551,
      "Torch": 7552,
      "Ban": 7553,
      "Sie": 7554,
      "West": 7555,
      "ders": 7556,
      "iment": 7557,
      "reven": 7558,
      "exhaust": 7559,
      "prepar": 7560,
      "muscles": 7561,
      "juice": 7562,
      "vocabulary": 7563,
      "HEIGHT": 7564,
      "quiet": 7565,
      "Rest": 7566,
      "pent": 7567,
      "vic": 7568,
      "ching": 7569,
      "shells": 7570,
      "poison": 7571,
      "ski": 7572,
      "realize": 7573,
      "salary": 7574,
      "customize": 7575,
      "Title": 7576,
      "CR": 7577,
      "Match": 7578,
      "RI": 7579,
      "SI": 7580,
      "bum": 7581,
      "glow": 7582,
      "sword": 7583,
      "orange": 7584,
      "decentralized": 7585,
      "plied": 7586,
      "diameter": 7587,
      "grams": 7588,
      "matplotlib": 7589,
      "chocolate": 7590,
      "sheets": 7591,
      "Help": 7592,
      "...,": 7593,
      "Company": 7594,
      "infinity": 7595,
      "breathing": 7596,
      "flavors": 7597,
      "Virt": 7598,
      "Jerry": 7599,
      "mouse": 7600,
      "speaking": 7601,
      "Assuming": 7602,
      "processed": 7603,
      "belong": 7604,
      "increases": 7605,
      "improvements": 7606,
      "responsibility": 7607,
      "restrictions": 7608,
      "<=": 7609,
      "TT": 7610,
      "cere": 7611,
      "saf": 7612,
      "inches": 7613,
      "armor": 7614,
      "rogue": 7615,
      "propri": 7616,
      "intel": 7617,
      "intent": 7618,
      "knows": 7619,
      "Stand": 7620,
      "timestamp": 7621,
      "seeing": 7622,
      "dragon": 7623,
      "installing": 7624,
      "animation": 7625,
      "expectations": 7626,
      "Server": 7627,
      "heavily": 7628,
      "motivation": 7629,
      "Techno": 7630,
      "accident": 7631,
      "Eastern": 7632,
      "East": 7633,
      "Oc": 7634,
      "caught": 7635,
      "identified": 7636,
      "ffball": 7637,
      "circu": 7638,
      "majority": 7639,
      "promoting": 7640,
      "General": 7641,
      "PyTorch": 7642,
      "journal": 7643,
      "3d": 7644,
      "Bb": 7645,
      "Egy": 7646,
      "\\\\": 7647,
      "_pair": 7648,
      "border": 7649,
      "conut": 7650,
      "okes": 7651,
      "mult": 7652,
      "productivity": 7653,
      "physic": 7654,
      "analyzing": 7655,
      "apartment": 7656,
      "Australia": 7657,
      "Down": 7658,
      "Dire": 7659,
      "Ko": 7660,
      "Lon": 7661,
      "Tim": 7662,
      "va": 7663,
      "resume": 7664,
      "edia": 7665,
      "meta": 7666,
      "deals": 7667,
      "putting": 7668,
      "marks": 7669,
      "estimated": 7670,
      "bridge": 7671,
      "dialogue": 7672,
      "SO": 7673,
      "iest": 7674,
      "unte": 7675,
      "elected": 7676,
      "preference": 7677,
      "button_": 7678,
      "ChangeFeed": 7679,
      "Fluffball": 7680,
      "Answer": 7681,
      "Clear": 7682,
      "P2": 7683,
      "station": 7684,
      "whis": 7685,
      "raises": 7686,
      "apt": 7687,
      "notable": 7688,
      "tag": 7689,
      "Sovi": 7690,
      "warming": 7691,
      "organisms": 7692,
      "calling": 7693,
      "discussion": 7694,
      "nuts": 7695,
      "kilometers": 7696,
      "Tun": 7697,
      "rc": 7698,
      "slower": 7699,
      "num_": 7700,
      "manual": 7701,
      "generations": 7702,
      "programmers": 7703,
      "modules": 7704,
      "Respon": 7705,
      "exploration": 7706,
      "cosmos": 7707,
      "Fam": 7708,
      "Rel": 7709,
      "bag": 7710,
      "bits": 7711,
      "beled": 7712,
      "ripe": 7713,
      "cio": 7714,
      "grant": 7715,
      "smell": 7716,
      "attend": 7717,
      "certainty": 7718,
      "labeled": 7719,
      "pyramid": 7720,
      "gradient": 7721,
      "critic": 7722,
      "Entity": 7723,
      "cylinder": 7724,
      "Wol": 7725,
      "tiny": 7726,
      "wat": 7727,
      "curious": 7728,
      "disk": 7729,
      "presentation": 7730,
      "Leg": 7731,
      "consumer": 7732,
      "struggling": 7733,
      "'''": 7734,
      "January": 7735,
      "rhythm": 7736,
      "Jew": 7737,
      "Moun": 7738,
      "Pa": 7739,
      "Ros": 7740,
      "dash": 7741,
      "nn": 7742,
      "sers": 7743,
      "extensive": 7744,
      "minor": 7745,
      "designing": 7746,
      "explaining": 7747,
      "glad": 7748,
      "iterate": 7749,
      "Setting": 7750,
      "matching": 7751,
      "Space": 7752,
      "Electron": 7753,
      "Queen": 7754,
      "62": 7755,
      "dwar": 7756,
      "anch": 7757,
      "alysis": 7758,
      "declar": 7759,
      "actor": 7760,
      "cription": 7761,
      "keyword": 7762,
      "expansion": 7763,
      "independence": 7764,
      "inspire": 7765,
      "cryptocurrency": 7766,
      "bacteria": 7767,
      "SCP": 7768,
      "bill": 7769,
      "lun": 7770,
      "indeed": 7771,
      "alo": 7772,
      "mentor": 7773,
      "bled": 7774,
      "ears": 7775,
      "sumers": 7776,
      "faced": 7777,
      "mutex": 7778,
      "vulnerable": 7779,
      "cabin": 7780,
      "Asia": 7781,
      "dictionary": 7782,
      "fascin": 7783,
      "Morty": 7784,
      "CC": 7785,
      "Tensor": 7786,
      "wolf": 7787,
      "intric": 7788,
      "forced": 7789,
      "acting": 7790,
      "2019": 7791,
      "organize": 7792,
      "bench": 7793,
      "fitness": 7794,
      "alternate": 7795,
      "recipes": 7796,
      "compatibility": 7797,
      "Break": 7798,
      "tongue": 7799,
      "59": 7800,
      "ELE": 7801,
      "RL": 7802,
      "cers": 7803,
      "ptr": 7804,
      "alert": 7805,
      "kept": 7806,
      "sius": 7807,
      "pron": 7808,
      "instances": 7809,
      "medi": 7810,
      "applying": 7811,
      "mush": 7812,
      "corporate": 7813,
      "vibrant": 7814,
      "Whether": 7815,
      "rub": 7816,
      "exit": 7817,
      "creators": 7818,
      "depression": 7819,
      "partner": 7820,
      "Unfortunately": 7821,
      "clock": 7822,
      "religion": 7823,
      "cv2": 7824,
      "insects": 7825,
      "Bay": 7826,
      "Landroid": 7827,
      "Rad": 7828,
      "texts": 7829,
      "wider": 7830,
      "orrow": 7831,
      "stages": 7832,
      "stunning": 7833,
      "ests": 7834,
      "White": 7835,
      "diversity": 7836,
      "marked_": 7837,
      "Marcus": 7838,
      "Visit": 7839,
      "fingers": 7840,
      "adopted": 7841,
      "warfare": 7842,
      "BR": 7843,
      "Bri": 7844,
      "Cus": 7845,
      "Hong": 7846,
      "Kong": 7847,
      "Mal": 7848,
      "Sco": 7849,
      "Water": 7850,
      "Willi": 7851,
      "vation": 7852,
      "x2": 7853,
      "accounts": 7854,
      "promin": 7855,
      "igno": 7856,
      "fewer": 7857,
      "disadvantages": 7858,
      "partners": 7859,
      "instant": 7860,
      "filen": 7861,
      "Proble": 7862,
      "Project": 7863,
      "visited": 7864,
      "nutr": 7865,
      "Portal": 7866,
      "Angel": 7867,
      "Soviet": 7868,
      "fry": 7869,
      "lac": 7870,
      "recover": 7871,
      "rewards": 7872,
      "losing": 7873,
      "quarter": 7874,
      "reser": 7875,
      "thane": 7876,
      "processor": 7877,
      "Stat": 7878,
      "choosing": 7879,
      "cerely": 7880,
      "Phys": 7881,
      "reveal": 7882,
      "galaxies": 7883,
      "Mart": 7884,
      "nginx": 7885,
      "selling": 7886,
      "samples": 7887,
      "annotation": 7888,
      "recovery": 7889,
      "oubles": 7890,
      "topo": 7891,
      "intention": 7892,
      "carbohydrates": 7893,
      "legacy": 7894,
      "localhost": 7895,
      "Manager": 7896,
      "achieving": 7897,
      "mountains": 7898,
      "Africa": 7899,
      "Est": 7900,
      "Sil": 7901,
      "repet": 7902,
      "coconut": 7903,
      "ppers": 7904,
      "relate": 7905,
      "kinds": 7906,
      "payment": 7907,
      "conversations": 7908,
      "respectively": 7909,
      "competitive": 7910,
      "composed": 7911,
      "hibit": 7912,
      "automate": 7913,
      "Minister": 7914,
      "^^^^^^^^": 7915,
      "inventory": 7916,
      "ambda": 7917,
      "thousands": 7918,
      "renewable": 7919,
      "wisdom": 7920,
      "Bur": 7921,
      "Sort": 7922,
      "flying": 7923,
      "leting": 7924,
      "name__": 7925,
      "Conjecture": 7926,
      "biased": 7927,
      "OpenBSD": 7928,
      "__name__": 7929,
      "burn": 7930,
      "OSI": 7931,
      "violence": 7932,
      "Processor": 7933,
      "nested": 7934,
      "bubble": 7935,
      "Eu": 7936,
      "Fi": 7937,
      "VE": 7938,
      "consumers": 7939,
      "astro": 7940,
      "2018": 7941,
      "Ensure": 7942,
      "Enjoy": 7943,
      "drum": 7944,
      "GPS": 7945,
      "Creating": 7946,
      "aneously": 7947,
      "golden": 7948,
      "umbbell": 7949,
      "Mathemat": 7950,
      "POST": 7951,
      "hypothetical": 7952,
      "Hz": 7953,
      "Pat": 7954,
      "bies": 7955,
      "bath": 7956,
      "ckets": 7957,
      "pound": 7958,
      "prota": 7959,
      "proposed": 7960,
      "resid": 7961,
      "reshold": 7962,
      "tea": 7963,
      "comparing": 7964,
      "Indu": 7965,
      "gobl": 7966,
      "smile": 7967,
      "considerations": 7968,
      "negot": 7969,
      "satell": 7970,
      "treasure": 7971,
      "protagon": 7972,
      "Dav": 7973,
      "Hit": 7974,
      "cide": 7975,
      "aterial": 7976,
      "effectiveness": 7977,
      "multiplication": 7978,
      "header": 7979,
      "calculation": 7980,
      "panels": 7981,
      "teacher": 7982,
      "paste": 7983,
      "Spec": 7984,
      "satisfact": 7985,
      "========": 7986,
      "International": 7987,
      "IL": 7988,
      "KN": 7989,
      "Tri": 7990,
      "WID": 7991,
      "eless": 7992,
      "abling": 7993,
      "plus": 7994,
      "traits": 7995,
      "folk": 7996,
      "(),": 7997,
      "practicing": 7998,
      "marked": 7999,
      "staying": 8000,
      "Phone": 8001,
      "radiation": 8002,
      "Content": 8003,
      "distances_": 8004,
      "WIDTH": 8005,
      "Bad": 8006,
      "IA": 8007,
      "Sn": 8008,
      "](": 8009,
      "`:": 8010,
      "fting": 8011,
      "za": 8012,
      "precision": 8013,
      "explained": 8014,
      "loads": 8015,
      "Ardu": 8016,
      "vocal": 8017,
      "measured": 8018,
      "separated": 8019,
      "September": 8020,
      "NU": 8021,
      "Vol": 8022,
      "duration": 8023,
      "pitch": 8024,
      "pounds": 8025,
      "wich": 8026,
      "street": 8027,
      "ental": 8028,
      "union": 8029,
      "lesson": 8030,
      "defend": 8031,
      "drivers": 8032,
      "calculations": 8033,
      "validate": 8034,
      "adequ": 8035,
      "rotate": 8036,
      "evaluation": 8037,
      "emphasis": 8038,
      "attribute": 8039,
      "Bron": 8040,
      "ME": 8041,
      "XX": 8042,
      "bpy": 8043,
      "varies": 8044,
      "witch": 8045,
      "xy": 8046,
      "inks": 8047,
      "Three": 8048,
      "consuming": 8049,
      "unless": 8050,
      "ham": 8051,
      "sport": 8052,
      "actively": 8053,
      "containers": 8054,
      "passing": 8055,
      "statistical": 8056,
      "transformation": 8057,
      "priority": 8058,
      "universal": 8059,
      "Development": 8060,
      "sized": 8061,
      "Republic": 8062,
      "Imm": 8063,
      "Mul": 8064,
      "kWh": 8065,
      "mdr": 8066,
      "null": 8067,
      "saving": 8068,
      "incess": 8069,
      "asazi": 8070,
      "ifier": 8071,
      "haven": 8072,
      "myst": 8073,
      "ips": 8074,
      "subjects": 8075,
      "sensory": 8076,
      "Point": 8077,
      "puzzles": 8078,
      "Arduino": 8079,
      "Battle": 8080,
      "Dream": 8081,
      "Hol": 8082,
      "zu": 8083,
      "onds": 8084,
      "ots": 8085,
      "shower": 8086,
      "cluster": 8087,
      "disci": 8088,
      "span": 8089,
      "Anasazi": 8090,
      "skillet": 8091,
      "furnit": 8092,
      "teaching": 8093,
      "millions": 8094,
      "papers": 8095,
      "Bank": 8096,
      "GO": 8097,
      "GUI": 8098,
      "_dir": 8099,
      "daugh": 8100,
      "rd": 8101,
      "susp": 8102,
      "administ": 8103,
      "atever": 8104,
      "calories": 8105,
      "roughly": 8106,
      "2010": 8107,
      "monad": 8108,
      "icted": 8109,
      "contributing": 8110,
      "reasonable": 8111,
      "removed": 8112,
      "proteins": 8113,
      "Control": 8114,
      "motherboard": 8115,
      "coordinates": 8116,
      "fetch": 8117,
      "toxic": 8118,
      "KEY": 8119,
      "kraine": 8120,
      "Civil": 8121,
      "Kar": 8122,
      "zip": 8123,
      "enables": 8124,
      "asks": 8125,
      "gov": 8126,
      "gged": 8127,
      "longest": 8128,
      "Book": 8129,
      "Johns": 8130,
      "borrow": 8131,
      "azure": 8132,
      "insulin": 8133,
      "versatile": 8134,
      "tactics": 8135,
      "furniture": 8136,
      "BERT": 8137,
      "Fa": 8138,
      "Mr": 8139,
      "Skill": 8140,
      "_value": 8141,
      "rul": 8142,
      "thro": 8143,
      "erts": 8144,
      "igen": 8145,
      "ifically": 8146,
      "urable": 8147,
      "etal": 8148,
      "bris": 8149,
      "readers": 8150,
      "volunte": 8151,
      "nearby": 8152,
      "cooling": 8153,
      "Depending": 8154,
      "Sky": 8155,
      "M_": 8156,
      "xx": 8157,
      "eras": 8158,
      "conquer": 8159,
      "igating": 8160,
      "unity": 8161,
      "fees": 8162,
      "etary": 8163,
      "bool": 8164,
      "twice": 8165,
      "Stu": 8166,
      "climb": 8167,
      "ierarch": 8168,
      "traditions": 8169,
      "sales": 8170,
      "sensor": 8171,
      "npm": 8172,
      "predictable": 8173,
      "WebSo": 8174,
      "---|": 8175,
      "${": 8176,
      "(&": 8177,
      ")}": 8178,
      "Tom": 8179,
      "vous": 8180,
      "acci": 8181,
      "olic": 8182,
      "heim": 8183,
      "omics": 8184,
      "hole": 8185,
      "finished": 8186,
      "Repe": 8187,
      ",,,": 8188,
      "optional": 8189,
      "execution": 8190,
      "ENT": 8191,
      "Council": 8192,
      "restaurants": 8193,
      "simplify": 8194,
      "Virtual": 8195,
      "@@": 8196,
      "Cat": 8197,
      "gust": 8198,
      "olive": 8199,
      "perception": 8200,
      "my_": 8201,
      "Chica": 8202,
      "cycl": 8203,
      "dependencies": 8204,
      "answering": 8205,
      "musical": 8206,
      "uniform": 8207,
      "steam": 8208,
      "freely": 8209,
      "vehicles": 8210,
      "Johnson": 8211,
      "Chicago": 8212,
      "Lay": 8213,
      "Sing": 8214,
      "Ukraine": 8215,
      "ka": 8216,
      "rin": 8217,
      "icting": 8218,
      "straw": 8219,
      "odd": 8220,
      "osity": 8221,
      "Social": 8222,
      "chances": 8223,
      "preferred": 8224,
      "falls": 8225,
      "England": 8226,
      "happening": 8227,
      "secrets": 8228,
      "Integr": 8229,
      "Optim": 8230,
      "London": 8231,
      "*.": 8232,
      "Dy": 8233,
      "Dan": 8234,
      "MB": 8235,
      "Old": 8236,
      "Vari": 8237,
      "homes": 8238,
      "mort": 8239,
      "{\"": 8240,
      "assumes": 8241,
      "illustr": 8242,
      "corn": 8243,
      "Proper": 8244,
      "Excel": 8245,
      "clothing": 8246,
      "GPIO": 8247,
      "calculates": 8248,
      "150": 8249,
      "mixing": 8250,
      "recognized": 8251,
      "Feel": 8252,
      "decades": 8253,
      "asyncio": 8254,
      "controversi": 8255,
      "FO": 8256,
      "Rol": 8257,
      "mium": 8258,
      "asset": 8259,
      "meals": 8260,
      "hael": 8261,
      "experiments": 8262,
      "filters": 8263,
      "returned": 8264,
      "glu": 8265,
      "moderate": 8266,
      "dedu": 8267,
      "Print": 8268,
      "authority": 8269,
      "slice": 8270,
      "specifies": 8271,
      "seasons": 8272,
      "cmd": 8273,
      "decimal": 8274,
      "earlier": 8275,
      "78": 8276,
      "Bot": 8277,
      "moist": 8278,
      "umn": 8279,
      "contest": 8280,
      "grain": 8281,
      "Conclusion": 8282,
      "aked": 8283,
      "skilled": 8284,
      "confidence": 8285,
      "fastest": 8286,
      "simult": 8287,
      "educational": 8288,
      "Greece": 8289,
      "Food": 8290,
      "Firefox": 8291,
      "Photo": 8292,
      "Sincerely": 8293,
      "intellect": 8294,
      "120": 8295,
      "BM": 8296,
      "Fol": 8297,
      "Long": 8298,
      "bund": 8299,
      "src": 8300,
      "wake": 8301,
      "ergy": 8302,
      "urally": 8303,
      "AND": 8304,
      "shi": 8305,
      "classified": 8306,
      "occas": 8307,
      "equality": 8308,
      "tomorrow": 8309,
      "sitting": 8310,
      "Without": 8311,
      "collected": 8312,
      "architect": 8313,
      "GPUs": 8314,
      "concentration": 8315,
      "agriculture": 8316,
      "Dig": 8317,
      "Fed": 8318,
      "SV": 8319,
      "Search": 8320,
      "sters": 8321,
      "utch": 8322,
      "quis": 8323,
      "login": 8324,
      "bling": 8325,
      "Chang": 8326,
      "crash": 8327,
      "Begin": 8328,
      "sunglasses": 8329,
      "scalable": 8330,
      "automation": 8331,
      "Training": 8332,
      "intricate": 8333,
      "<!": 8334,
      "Ali": 8335,
      "VID": 8336,
      "eg": 8337,
      "slot": 8338,
      "ym": 8339,
      "rek": 8340,
      "cores": 8341,
      "tip": 8342,
      "troubles": 8343,
      "teen": 8344,
      "feat": 8345,
      "Anim": 8346,
      "settle": 8347,
      "functioning": 8348,
      "charged": 8349,
      "runtime": 8350,
      "beginners": 8351,
      "wheel": 8352,
      "avoiding": 8353,
      "governments": 8354,
      "supervised": 8355,
      "transformer": 8356,
      "DataFrame": 8357,
      "phrases": 8358,
      "Redu": 8359,
      "savings": 8360,
      "missions": 8361,
      "Profess": 8362,
      "KNIGHT": 8363,
      "-|": 8364,
      "Az": 8365,
      "SIM": 8366,
      "Watch": 8367,
      "vict": 8368,
      "delete": 8369,
      "percent": 8370,
      "caly": 8371,
      "hoot": 8372,
      "generator": 8373,
      "cheap": 8374,
      "ordered": 8375,
      "radar": 8376,
      "explores": 8377,
      "robots": 8378,
      "microsoft": 8379,
      "END": 8380,
      "universes": 8381,
      "protagonist": 8382,
      "discipl": 8383,
      "Big": 8384,
      "Ha": 8385,
      "Save": 8386,
      "intake": 8387,
      "chi": 8388,
      "adult": 8389,
      "adults": 8390,
      "Instructions": 8391,
      "cade": 8392,
      "Strength": 8393,
      "Encourage": 8394,
      "performs": 8395,
      "typed": 8396,
      ":::": 8397,
      "profound": 8398,
      "reaches": 8399,
      "Box": 8400,
      "offered": 8401,
      "regarded": 8402,
      "waiting": 8403,
      "Peter": 8404,
      "symbols": 8405,
      "41": 8406,
      "46": 8407,
      "Clean": 8408,
      "Fro": 8409,
      "RO": 8410,
      "mig": 8411,
      "hearing": 8412,
      "eting": 8413,
      "cubic": 8414,
      "malicious": 8415,
      "refine": 8416,
      "256": 8417,
      "aims": 8418,
      "deeply": 8419,
      "REST": 8420,
      "integrity": 8421,
      "emerged": 8422,
      "university": 8423,
      "accordingly": 8424,
      "agreement": 8425,
      "seeds": 8426,
      "Current": 8427,
      "pleasure": 8428,
      "pollution": 8429,
      "Nat": 8430,
      "TB": 8431,
      "album": 8432,
      "stro": 8433,
      "ctr": 8434,
      "boat": 8435,
      "grab": 8436,
      "overfitting": 8437,
      "Ask": 8438,
      "suppor": 8439,
      "placement": 8440,
      "immers": 8441,
      "injuries": 8442,
      "Items": 8443,
      "entertainment": 8444,
      "Office": 8445,
      "WH": 8446,
      "eager": 8447,
      "hund": 8448,
      "atar": 8449,
      "almon": 8450,
      "semb": 8451,
      "det": 8452,
      "intensity": 8453,
      "bomb": 8454,
      "signature": 8455,
      "Alpha": 8456,
      "nervous": 8457,
      "smoke": 8458,
      "Command": 8459,
      "Special": 8460,
      "weapon": 8461,
      "5000": 8462,
      "Fore": 8463,
      "Hat": 8464,
      "Pur": 8465,
      "Washing": 8466,
      "fav": 8467,
      "gely": 8468,
      "uber": 8469,
      "acef": 8470,
      "resized": 8471,
      "phy": 8472,
      "discord": 8473,
      "crast": 8474,
      "Health": 8475,
      "Adv": 8476,
      "Cook": 8477,
      "println": 8478,
      "hybrid": 8479,
      "balls": 8480,
      "philosophers": 8481,
      "receives": 8482,
      "Moder": 8483,
      "Room": 8484,
      "pipeline": 8485,
      "infring": 8486,
      "metrics": 8487,
      "02": 8488,
      "Brown": 8489,
      "Fill": 8490,
      "GET": 8491,
      "Meth": 8492,
      "Pick": 8493,
      "dut": 8494,
      "dice": 8495,
      "tort": 8496,
      "args": 8497,
      "verb": 8498,
      "programmed": 8499,
      "tuned": 8500,
      "auton": 8501,
      "greenhouse": 8502,
      "frontend": 8503,
      "winning": 8504,
      "casual": 8505,
      "rendering": 8506,
      "inflation": 8507,
      "Washington": 8508,
      "CV": 8509,
      "_key": 8510,
      "twe": 8511,
      "elli": 8512,
      "whatever": 8513,
      "plates": 8514,
      "resize": 8515,
      "add_": 8516,
      "shouldn": 8517,
      "19th": 8518,
      "Magic": 8519,
      "alphabet": 8520,
      "daughter": 8521,
      "-$": 8522,
      "Bro": 8523,
      "Mari": 8524,
      "Ns": 8525,
      "olog": 8526,
      "piano": 8527,
      "retain": 8528,
      "ented": 8529,
      "ilies": 8530,
      "ifies": 8531,
      "estic": 8532,
      "worse": 8533,
      "Italy": 8534,
      "managed": 8535,
      "ipedia": 8536,
      "1980": 8537,
      "Determine": 8538,
      "locate": 8539,
      "shaping": 8540,
      "reflection": 8541,
      "licity": 8542,
      "screens": 8543,
      "scenes": 8544,
      "banana": 8545,
      "THE": 8546,
      "possibly": 8547,
      "democratic": 8548,
      "conventions": 8549,
      "ndarray": 8550,
      "Alternatively": 8551,
      "\").": 8552,
      "Rain": 8553,
      "mol": 8554,
      "urban": 8555,
      "tags": 8556,
      "embr": 8557,
      "osaur": 8558,
      "freezing": 8559,
      "magn": 8560,
      "grows": 8561,
      "distributions": 8562,
      "++)": 8563,
      "employment": 8564,
      "gonomic": 8565,
      "ISO": 8566,
      "giant": 8567,
      "proprietary": 8568,
      "Follow": 8569,
      "800": 8570,
      ">>": 8571,
      "BC": 8572,
      "Found": 8573,
      "Master": 8574,
      "OW": 8575,
      "Tile": 8576,
      "dangers": 8577,
      "encoding": 8578,
      "cose": 8579,
      "timing": 8580,
      "advoc": 8581,
      "concern": 8582,
      "treated": 8583,
      "!!!!": 8584,
      "amazing": 8585,
      "drugs": 8586,
      "Cro": 8587,
      "Center": 8588,
      "alter": 8589,
      "doc": 8590,
      "perman": 8591,
      "dioxide": 8592,
      "buzz": 8593,
      "directed": 8594,
      "risto": 8595,
      "committed": 8596,
      "reflects": 8597,
      "sexual": 8598,
      "Central": 8599,
      "suddenly": 8600,
      "horizontal": 8601,
      "Cir": 8602,
      "Cam": 8603,
      "href": 8604,
      "hierarch": 8605,
      "methane": 8606,
      "enters": 8607,
      "poons": 8608,
      "compli": 8609,
      "00000": 8610,
      "disorders": 8611,
      "distur": 8612,
      "surve": 8613,
      "Examples": 8614,
      "insight": 8615,
      "lasting": 8616,
      "evolve": 8617,
      "acceptable": 8618,
      "convenient": 8619,
      "proposal": 8620,
      "racial": 8621,
      ".[": 8622,
      "Eli": 8623,
      "GM": 8624,
      "Hard": 8625,
      "UK": 8626,
      "recording": 8627,
      "army": 8628,
      "asleep": 8629,
      "mptions": 8630,
      "adata": 8631,
      "noticed": 8632,
      "tape": 8633,
      "eted": 8634,
      "bold": 8635,
      "obvious": 8636,
      "humor": 8637,
      "regulation": 8638,
      "defining": 8639,
      "measurements": 8640,
      "concerned": 8641,
      "Import": 8642,
      "Perform": 8643,
      "conversational": 8644,
      "Michael": 8645,
      "silver": 8646,
      "village": 8647,
      "distractions": 8648,
      "'(": 8649,
      "jac": 8650,
      "rive": 8651,
      "fertil": 8652,
      "worker": 8653,
      "twist": 8654,
      "portion": 8655,
      "purple": 8656,
      "metadata": 8657,
      "reliability": 8658,
      "authorized": 8659,
      "Russian": 8660,
      "Christian": 8661,
      "ranging": 8662,
      "ungeon": 8663,
      "rapidly": 8664,
      "Square": 8665,
      "snapshot": 8666,
      "Problem": 8667,
      "Frid": 8668,
      "Grad": 8669,
      "incoming": 8670,
      "alian": 8671,
      "deck": 8672,
      "()`": 8673,
      "timeline": 8674,
      "file_path": 8675,
      "Energy": 8676,
      "polite": 8677,
      "operators": 8678,
      "tale": 8679,
      "fram": 8680,
      "evolving": 8681,
      "cosmosdb": 8682,
      ".”": 8683,
      "Dat": 8684,
      "Edu": 8685,
      "aks": 8686,
      "bish": 8687,
      "ji": 8688,
      "mine": 8689,
      "wrap": 8690,
      "anc": 8691,
      "enforce": 8692,
      "consume": 8693,
      "unnecessary": 8694,
      "tire": 8695,
      "compelling": 8696,
      "lightning": 8697,
      "computations": 8698,
      "Regard": 8699,
      "manipulation": 8700,
      "Differ": 8701,
      "proximity": 8702,
      "filename": 8703,
      "glucose": 8704,
      "Cross": 8705,
      "HAL": 8706,
      "tack": 8707,
      "inference": 8708,
      "reports": 8709,
      "abc": 8710,
      "expon": 8711,
      "worried": 8712,
      "shoes": 8713,
      "ounce": 8714,
      "Italian": 8715,
      "Stack": 8716,
      "planned": 8717,
      "memories": 8718,
      "scroll": 8719,
      "cube": 8720,
      "confusion": 8721,
      "ucid": 8722,
      "Loop": 8723,
      "drawn": 8724,
      "Marx": 8725,
      "photos": 8726,
      "divine": 8727,
      "Manage": 8728,
      "regulate": 8729,
      "picking": 8730,
      "gentle": 8731,
      "Flask": 8732,
      "Batman": 8733,
      "hydrogen": 8734,
      "sacr": 8735,
      "comedy": 8736,
      "safely": 8737,
      "ELEM_": 8738,
      "$\\": 8739,
      ":=": 8740,
      "Cra": 8741,
      "Law": 8742,
      "inqu": 8743,
      "uli": 8744,
      "urs": 8745,
      "council": 8746,
      "crystal": 8747,
      "barrier": 8748,
      "maximize": 8749,
      "numerical": 8750,
      "7b5": 8751,
      "incredibly": 8752,
      "Wolfram": 8753,
      "Repeat": 8754,
      "49": 8755,
      "Caf": 8756,
      "Den": 8757,
      "_of": 8758,
      "fate": 8759,
      "nas": 8760,
      "youth": 8761,
      "respir": 8762,
      "interrup": 8763,
      "generic": 8764,
      "marine": 8765,
      "keeps": 8766,
      "soup": 8767,
      "saved": 8768,
      "democracy": 8769,
      "convince": 8770,
      "leadership": 8771,
      "simultaneously": 8772,
      "Temp": 8773,
      "kin": 8774,
      "oph": 8775,
      "agger": 8776,
      "extensions": 8777,
      "cury": 8778,
      "gameplay": 8779,
      "opened": 8780,
      "directions": 8781,
      "succeed": 8782,
      "sorts": 8783,
      "garbage": 8784,
      "studied": 8785,
      "assumptions": 8786,
      "cinema": 8787,
      "Initialize": 8788,
      "NE": 8789,
      "Night": 8790,
      "tel": 8791,
      "wand": 8792,
      "entities": 8793,
      "inequality": 8794,
      "extended": 8795,
      "engaged": 8796,
      "turing": 8797,
      "reduction": 8798,
      "headers": 8799,
      "Being": 8800,
      "ashion": 8801,
      "activation": 8802,
      "geometric": 8803,
      "psychological": 8804,
      "controlling": 8805,
      "phenomena": 8806,
      "Saturn": 8807,
      "mythology": 8808,
      "Scroll": 8809,
      "deployment": 8810,
      "dwarves": 8811,
      "/*": 8812,
      "58": 8813,
      "Happ": 8814,
      "Ie": 8815,
      "Scient": 8816,
      "Tes": 8817,
      "Ye": 8818,
      "paced": 8819,
      "tos": 8820,
      "convey": 8821,
      "dump": 8822,
      "okay": 8823,
      "gran": 8824,
      "generative": 8825,
      "main__": 8826,
      "largely": 8827,
      "medication": 8828,
      "surprise": 8829,
      "__main__": 8830,
      "swallow": 8831,
      "farming": 8832,
      "square_": 8833,
      "consistency": 8834,
      "ordinary": 8835,
      "hesitate": 8836,
      "cryptography": 8837,
      "honest": 8838,
      "conventional": 8839,
      "F_PAD_": 8840,
      "compiler": 8841,
      "WebSocket": 8842,
      "troubleshoot": 8843,
      "HALF_PAD_": 8844,
      "Caffe": 8845,
      "Gover": 8846,
      "aud": 8847,
      "hurt": 8848,
      "slo": 8849,
      "thic": 8850,
      "arbit": 8851,
      "Thus": 8852,
      "conn": 8853,
      "wearing": 8854,
      "printer": 8855,
      "fline": 8856,
      "apping": 8857,
      "defense": 8858,
      "bike": 8859,
      "genres": 8860,
      "connects": 8861,
      "facil": 8862,
      "integral": 8863,
      "attempting": 8864,
      "lux": 8865,
      "captured": 8866,
      "volutional": 8867,
      "Nextcloud": 8868,
      "earthquakes": 8869,
      "mathematicians": 8870,
      "pixel": 8871,
      "avier": 8872,
      "aceful": 8873,
      "));": 8874,
      "Die": 8875,
      "Fib": 8876,
      "Lack": 8877,
      "Ni": 8878,
      "Sign": 8879,
      "Structure": 8880,
      "onacci": 8881,
      "Think": 8882,
      "ria": 8883,
      "shel": 8884,
      "prone": 8885,
      "dataframe": 8886,
      "export": 8887,
      "microw": 8888,
      "biggest": 8889,
      "rotated": 8890,
      "ArrayList": 8891,
      "Bet": 8892,
      "Pass": 8893,
      "Task": 8894,
      "bicy": 8895,
      "jar": 8896,
      "intr": 8897,
      "inpaint": 8898,
      "itut": 8899,
      "stones": 8900,
      "rose": 8901,
      "mmer": 8902,
      "useum": 8903,
      "dip": 8904,
      "contexts": 8905,
      "signed": 8906,
      "simplicity": 8907,
      "easiest": 8908,
      "joint": 8909,
      "bott": 8910,
      "publish": 8911,
      "hosting": 8912,
      "Plato": 8913,
      "snip": 8914,
      "Philosoph": 8915,
      "surroundings": 8916,
      "GitHub": 8917,
      "ImageData": 8918,
      "Drag": 8919,
      "Safe": 8920,
      "housing": 8921,
      "antibiotics": 8922,
      "infections": 8923,
      "NULL": 8924,
      "Tesla": 8925,
      "47": 8926,
      "A2": 8927,
      "PI": 8928,
      "cue": 8929,
      "anom": 8930,
      "orian": 8931,
      "alive": 8932,
      "toler": 8933,
      "suspect": 8934,
      "gray": 8935,
      "funding": 8936,
      "coll": 8937,
      "colour": 8938,
      "2014": 8939,
      "greg": 8940,
      "grew": 8941,
      "Chrome": 8942,
      "cultiv": 8943,
      "occup": 8944,
      "communism": 8945,
      "refresh": 8946,
      "salad": 8947,
      "travels": 8948,
      "demonstrate": 8949,
      "vehicle": 8950,
      "Camp": 8951,
      "Close": 8952,
      "Fort": 8953,
      "Log": 8954,
      "Pip": 8955,
      "XT": 8956,
      "fought": 8957,
      "punk": 8958,
      "iner": 8959,
      "ione": 8960,
      "coast": 8961,
      "Thor": 8962,
      "Those": 8963,
      "proceed": 8964,
      "usions": 8965,
      "urance": 8966,
      "apples": 8967,
      "docs": 8968,
      "diale": 8969,
      "spray": 8970,
      "frustr": 8971,
      "grown": 8972,
      "mindful": 8973,
      "sensors": 8974,
      "boring": 8975,
      "identifying": 8976,
      "consistently": 8977,
      "assistants": 8978,
      "normalization": 8979,
      "nearly": 8980,
      "rewarding": 8981,
      "Messi": 8982,
      "bolt": 8983,
      "revenue": 8984,
      "Natural": 8985,
      "dialect": 8986,
      "Dumbbell": 8987,
      "MRI": 8988,
      "euro": 8989,
      "minecraft": 8990,
      "pil": 8991,
      "rank": 8992,
      "tro": 8993,
      "onic": 8994,
      "aside": 8995,
      "assuming": 8996,
      "strain": 8997,
      "stead": 8998,
      "conserv": 8999,
      "unusual": 9000,
      "Console": 9001,
      "organism": 9002,
      "cute": 9003,
      "MySQL": 9004,
      "selecting": 9005,
      "frequent": 9006,
      "apocaly": 9007,
      "Portu": 9008,
      "cybersecurity": 9009,
      "incredible": 9010,
      "mathematician": 9011,
      "Economic": 9012,
      "categories": 9013,
      "Jewish": 9014,
      "Cr": 9015,
      "Hu": 9016,
      "Pal": 9017,
      "som": 9018,
      "artif": 9019,
      "logs": 9020,
      "highlight": 9021,
      "imaging": 9022,
      "films": 9023,
      "namic": 9024,
      "loading": 9025,
      "physically": 9026,
      "Organ": 9027,
      "bonds": 9028,
      "integrate": 9029,
      "vulnerability": 9030,
      "Character": 9031,
      "decrease": 9032,
      "Constant": 9033,
      "Mountain": 9034,
      "Fibonacci": 9035,
      "CB": 9036,
      "SRE": 9037,
      "bie": 9038,
      "rings": 9039,
      "vor": 9040,
      "reject": 9041,
      "enthus": 9042,
      "accoun": 9043,
      "sey": 9044,
      "beings": 9045,
      "veled": 9046,
      "promise": 9047,
      "SSH": 9048,
      "shif": 9049,
      "ills": 9050,
      "variations": 9051,
      "1024": 9052,
      "herbs": 9053,
      "watermelon": 9054,
      "mutation": 9055,
      "relief": 9056,
      "paddle1_": 9057,
      "paddle2_": 9058,
      "discussions": 9059,
      "coordinate": 9060,
      "convenience": 9061,
      "square_center": 9062,
      "enthusi": 9063,
      "_matrix": 9064,
      "cdot": 9065,
      "pink": 9066,
      "slic": 9067,
      "ergonomic": 9068,
      "wasn": 9069,
      "worlds": 9070,
      "Docker": 9071,
      "interacting": 9072,
      "civilizations": 9073,
      "combining": 9074,
      "vote": 9075,
      "Cyber": 9076,
      "department": 9077,
      "destruction": 9078,
      "TileEntity": 9079,
      "86": 9080,
      "Oper": 9081,
      "Right": 9082,
      "Sto": 9083,
      "_1": 9084,
      "devi": 9085,
      "debug": 9086,
      "cone": 9087,
      "procrast": 9088,
      "anymore": 9089,
      "observe": 9090,
      "ketch": 9091,
      "wars": 9092,
      "licens": 9093,
      "behaviour": 9094,
      "filling": 9095,
      "vectorized": 9096,
      "speaker": 9097,
      "alignment": 9098,
      "killing": 9099,
      "inflam": 9100,
      "participate": 9101,
      "propag": 9102,
      "perceive": 9103,
      "adequate": 9104,
      "Bio": 9105,
      "Cry": 9106,
      "Park": 9107,
      "gases": 9108,
      "lers": 9109,
      "ifest": 9110,
      "endpoint": 9111,
      "findings": 9112,
      "smiles": 9113,
      "polar": 9114,
      "smallest": 9115,
      "legend": 9116,
      "heads": 9117,
      "athy": 9118,
      "paths": 9119,
      "election": 9120,
      "lengths": 9121,
      "ING": 9122,
      "boundaries": 9123,
      "gods": 9124,
      "tuce": 9125,
      "aggressive": 9126,
      "Multi": 9127,
      "Hal": 9128,
      "Ham": 9129,
      "NOT": 9130,
      "fashion": 9131,
      "kers": 9132,
      "tank": 9133,
      "ensures": 9134,
      "enabling": 9135,
      "alan": 9136,
      "chant": 9137,
      "Theory": 9138,
      "shut": 9139,
      "illness": 9140,
      "interior": 9141,
      "commod": 9142,
      "bugs": 9143,
      "webpage": 9144,
      "populations": 9145,
      "Unreal": 9146,
      "similarity": 9147,
      "chemy": 9148,
      "Neo": 9149,
      "photography": 9150,
      "PCIe": 9151,
      "Viet": 9152,
      "faith": 9153,
      "inherit": 9154,
      "History": 9155,
      "explicitly": 9156,
      "clicking": 9157,
      "Celsius": 9158,
      "normally": 9159,
      "Similarly": 9160,
      "110": 9161,
      "Fall": 9162,
      "Hop": 9163,
      "Psy": 9164,
      "]]": 9165,
      "cending": 9166,
      "ni": 9167,
      "inject": 9168,
      "concl": 9169,
      "Theorem": 9170,
      "compiled": 9171,
      "udes": 9172,
      "logger": 9173,
      "Analysis": 9174,
      "startup": 9175,
      "viewer": 9176,
      "Something": 9177,
      "families": 9178,
      "ucch": 9179,
      "Neural": 9180,
      "adjusting": 9181,
      "zero_": 9182,
      "Solar": 9183,
      "itutional": 9184,
      "responsibilities": 9185,
      "shadows": 9186,
      "prominent": 9187,
      "satisfaction": 9188,
      "Studio": 9189,
      "Flow": 9190,
      "JO": 9191,
      "Sand": 9192,
      "_ptr": 9193,
      "batt": 9194,
      "ffect": 9195,
      "gro": 9196,
      "iPhone": 9197,
      "jokes": 9198,
      "rated": 9199,
      "oned": 9200,
      "vember": 9201,
      "urus": 9202,
      "feas": 9203,
      "feather": 9204,
      "cur_mat": 9205,
      "depicted": 9206,
      "finite": 9207,
      "aka": 9208,
      "societies": 9209,
      "voltage": 9210,
      "November": 9211,
      "norms": 9212,
      "maintained": 9213,
      "Discus": 9214,
      "Symph": 9215,
      "determines": 9216,
      "biology": 9217,
      "Subject": 9218,
      "encountered": 9219,
      "huge": 9220,
      "Govern": 9221,
      "Symphony": 9222,
      "ALL": 9223,
      "Eb": 9224,
      "NAM": 9225,
      "Tot": 9226,
      "VAR": 9227,
      "_num": 9228,
      "hide": 9229,
      "pg": 9230,
      "tary": 9231,
      "acou": 9232,
      "beach": 9233,
      "oty": 9234,
      "clou": 9235,
      "epic": 9236,
      "manually": 9237,
      "currencies": 9238,
      "franch": 9239,
      "axe": 9240,
      "volcan": 9241,
      "sophistic": 9242,
      "ListView": 9243,
      "transformers": 9244,
      "AMD": 9245,
      "posts": 9246,
      "shops": 9247,
      "IMP": 9248,
      "contracts": 9249,
      "dividing": 9250,
      "qualities": 9251,
      "reminder": 9252,
      "arbitr": 9253,
      "sophisticated": 9254,
      "\"$": 9255,
      "SA": 9256,
      "Tol": 9257,
      "hunt": 9258,
      "}$": 9259,
      "inf": 9260,
      "oni": 9261,
      "champ": 9262,
      "tired": 9263,
      "doctr": 9264,
      "acknow": 9265,
      "diff": 9266,
      "delay": 9267,
      "buffer": 9268,
      "Cost": 9269,
      "warning": 9270,
      "publicly": 9271,
      "Love": 9272,
      "displayed": 9273,
      "argued": 9274,
      "Plu": 9275,
      "weekend": 9276,
      "youtube": 9277,
      "Cath": 9278,
      "Player": 9279,
      "Ra": 9280,
      "bark": 9281,
      "han": 9282,
      "stated": 9283,
      "seam": 9284,
      "adoption": 9285,
      "irrit": 9286,
      "aching": 9287,
      "specifications": 9288,
      "applicable": 9289,
      "programmer": 9290,
      "freeze": 9291,
      "profile": 9292,
      "measuring": 9293,
      "circles": 9294,
      "claimed": 9295,
      "Carbon": 9296,
      "absence": 9297,
      "Middle": 9298,
      "Hitler": 9299,
      "intellectual": 9300,
      "Friday": 9301,
      "Fre": 9302,
      "Kra": 9303,
      "VI": 9304,
      "Wel": 9305,
      "zilla": 9306,
      "{}": 9307,
      "inal": 9308,
      "ilder": 9309,
      "restore": 9310,
      "parry": 9311,
      "invention": 9312,
      "Force": 9313,
      "advis": 9314,
      "award": 9315,
      "Environ": 9316,
      "bond": 9317,
      "Collect": 9318,
      "villagers": 9319,
      "iconic": 9320,
      "Understanding": 9321,
      "guarantee": 9322,
      "jango": 9323,
      "oscillator": 9324,
      "controversial": 9325,
      "acoustic": 9326,
      ":)": 9327,
      "VS": 9328,
      "arise": 9329,
      "foss": 9330,
      "prefix": 9331,
      "Weather": 9332,
      "explains": 9333,
      "productive": 9334,
      "superconduct": 9335,
      "horror": 9336,
      "Strong": 9337,
      "onym": 9338,
      "capitalism": 9339,
      "paragraphs": 9340,
      "Trade": 9341,
      "fulfilling": 9342,
      "inguish": 9343,
      "mushrooms": 9344,
      "Establish": 9345,
      "Vietnam": 9346,
      "72": 9347,
      "Card": 9348,
      "FTP": 9349,
      "cash": 9350,
      "vity": 9351,
      "ined": 9352,
      "cow": 9353,
      "conspir": 9354,
      "peppers": 9355,
      "thereum": 9356,
      "transparent": 9357,
      "penal": 9358,
      "confused": 9359,
      "appeal": 9360,
      "distribute": 9361,
      "affects": 9362,
      "lined": 9363,
      "snacks": 9364,
      "thread_": 9365,
      "procedures": 9366,
      ")):": 9367,
      "*/": 9368,
      ".]": 9369,
      "Ga": 9370,
      "Los": 9371,
      "Male": 9372,
      "Put": 9373,
      "lunch": 9374,
      "narr": 9375,
      "oh": 9376,
      "wra": 9377,
      "req": 9378,
      "tops": 9379,
      "offline": 9380,
      "abund": 9381,
      "worst": 9382,
      "aven": 9383,
      "funds": 9384,
      "fluct": 9385,
      "supporting": 9386,
      "Arab": 9387,
      "definitive": 9388,
      "describing": 9389,
      "hosted": 9390,
      "authorities": 9391,
      "photograph": 9392,
      "Monitor": 9393,
      "holes": 9394,
      "Offer": 9395,
      "soldiers": 9396,
      "ball_pos": 9397,
      "pictures": 9398,
      "Green": 9399,
      "pursue": 9400,
      "Cour": 9401,
      "EIN": 9402,
      "cort": 9403,
      "fuck": 9404,
      "tast": 9405,
      "uk": 9406,
      "enn": 9407,
      "tower": 9408,
      "cock": 9409,
      "los": 9410,
      "amet": 9411,
      "agre": 9412,
      "flash": 9413,
      "Ancient": 9414,
      "partial": 9415,
      "Decide": 9416,
      "locking": 9417,
      "vention": 9418,
      "founded": 9419,
      "__init": 9420,
      "believes": 9421,
      "titude": 9422,
      "pairs": 9423,
      "measurement": 9424,
      "Editor": 9425,
      "ungeons": 9426,
      "linguistics": 9427,
      "Programming": 9428,
      "__init__": 9429,
      "CI": 9430,
      "DR": 9431,
      "Got": 9432,
      "Pay": 9433,
      "Wi": 9434,
      "dress": 9435,
      "hil": 9436,
      "hang": 9437,
      "ql": 9438,
      "west": 9439,
      "inary": 9440,
      "exhibit": 9441,
      "uts": 9442,
      "uris": 9443,
      "intense": 9444,
      "curv": 9445,
      "subs": 9446,
      "Head": 9447,
      "ifying": 9448,
      "Only": 9449,
      "Marley": 9450,
      "Interface": 9451,
      "Justice": 9452,
      "constructed": 9453,
      "encrypted": 9454,
      "________": 9455,
      "synthetic": 9456,
      "microwave": 9457,
      "K_": 9458,
      "aus": 9459,
      "bat": 9460,
      "fake": 9461,
      "jun": 9462,
      "plying": 9463,
      "scripts": 9464,
      "rew": 9465,
      "allies": 9466,
      "mapping": 9467,
      "your_": 9468,
      "ols": 9469,
      "transmission": 9470,
      "lessons": 9471,
      "venture": 9472,
      "tradition": 9473,
      "crafting": 9474,
      "naturally": 9475,
      "explored": 9476,
      "emotion": 9477,
      "lossal": 9478,
      "completeness": 9479,
      "Consist": 9480,
      "onald": 9481,
      ",,,,,,,,": 9482,
      "collaborate": 9483,
      "votes": 9484,
      "Moreover": 9485,
      "protocols": 9486,
      "fascinating": 9487,
      "Digital": 9488,
      "Apr": 9489,
      "zucch": 9490,
      "lemon": 9491,
      "stere": 9492,
      "fork": 9493,
      "shu": 9494,
      "compost": 9495,
      "humidity": 9496,
      "2015": 9497,
      "printed": 9498,
      "graphical": 9499,
      "bedtime": 9500,
      "aimed": 9501,
      "payments": 9502,
      "seemed": 9503,
      "employee": 9504,
      "joined": 9505,
      "expressed": 9506,
      "Mean": 9507,
      "ecosystem": 9508,
      "encoded": 9509,
      "Panel": 9510,
      "William": 9511,
      "David": 9512,
      "fossil": 9513,
      "Draw": 9514,
      "Ethereum": 9515,
      "Isa": 9516,
      "dense": 9517,
      "fats": 9518,
      "lens": 9519,
      "ptive": 9520,
      "vamp": 9521,
      "itzer": 9522,
      "apor": 9523,
      "agu": 9524,
      "boil": 9525,
      "corruption": 9526,
      "lettuce": 9527,
      "evening": 9528,
      "meanings": 9529,
      "scripting": 9530,
      "ometry": 9531,
      "Description": 9532,
      "hosts": 9533,
      "centered": 9534,
      "max_": 9535,
      "batteries": 9536,
      "substance": 9537,
      "July": 9538,
      "Hungarian": 9539,
      "darkness": 9540,
      "Layer": 9541,
      "sembly": 9542,
      "700": 9543,
      "CL": 9544,
      "Odys": 9545,
      "RTX": 9546,
      "hits": 9547,
      "hobby": 9548,
      "nail": 9549,
      "oz": 9550,
      "s3": 9551,
      "tough": 9552,
      "replies": 9553,
      "enix": 9554,
      "pets": 9555,
      "impress": 9556,
      "blind": 9557,
      "rising": 9558,
      "bedroom": 9559,
      "sunset": 9560,
      "initi": 9561,
      "++,": 9562,
      "Chem": 9563,
      "authorization": 9564,
      "Reddit": 9565,
      "momentum": 9566,
      "macro": 9567,
      "::::::::": 9568,
      "manufacturing": 9569,
      "frozen": 9570,
      "elope": 9571,
      "05": 9572,
      "Ah": 9573,
      "CU": 9574,
      "Call": 9575,
      "Gender": 9576,
      "IQ": 9577,
      "Lag": 9578,
      "Shar": 9579,
      "blow": 9580,
      "gut": 9581,
      "gage": 9582,
      "sla": 9583,
      "zom": 9584,
      "oring": 9585,
      "ittle": 9586,
      "entang": 9587,
      "mpeg": 9588,
      "abol": 9589,
      "emon": 9590,
      "dust": 9591,
      "preneur": 9592,
      "spat": 9593,
      "set_": 9594,
      "lift": 9595,
[...]
